#include <Arduino.h>

alignas(8) const unsigned char model_data[] PROGMEM = {
  0x20, 0x00, 0x00, 0x00, 0x54, 0x46, 0x4c, 0x33, 0x00, 0x00, 0x00, 0x00, 0x14, 0x00, 0x20, 0x00,
  0x1c, 0x00, 0x18, 0x00, 0x14, 0x00, 0x10, 0x00, 0x0c, 0x00, 0x00, 0x00, 0x08, 0x00, 0x04, 0x00,
  0x14, 0x00, 0x00, 0x00, 0x1c, 0x00, 0x00, 0x00, 0x98, 0x00, 0x00, 0x00, 0x18, 0x01, 0x00, 0x00,
  0x18, 0x0f, 0x00, 0x00, 0x28, 0x0f, 0x00, 0x00, 0x4c, 0x35, 0x00, 0x00, 0x03, 0x00, 0x00, 0x00,
  0x01, 0x00, 0x00, 0x00, 0x10, 0x00, 0x00, 0x00, 0x00, 0x00, 0x0a, 0x00, 0x10, 0x00, 0x0c, 0x00,
  0x08, 0x00, 0x04, 0x00, 0x0a, 0x00, 0x00, 0x00, 0x0c, 0x00, 0x00, 0x00, 0x1c, 0x00, 0x00, 0x00,
  0x3c, 0x00, 0x00, 0x00, 0x0f, 0x00, 0x00, 0x00, 0x73, 0x65, 0x72, 0x76, 0x69, 0x6e, 0x67, 0x5f,
  0x64, 0x65, 0x66, 0x61, 0x75, 0x6c, 0x74, 0x00, 0x01, 0x00, 0x00, 0x00, 0x04, 0x00, 0x00, 0x00,
  0x68, 0xff, 0xff, 0xff, 0x1b, 0x00, 0x00, 0x00, 0x04, 0x00, 0x00, 0x00, 0x08, 0x00, 0x00, 0x00,
  0x6f, 0x75, 0x74, 0x70, 0x75, 0x74, 0x5f, 0x30, 0x00, 0x00, 0x00, 0x00, 0x01, 0x00, 0x00, 0x00,
  0x04, 0x00, 0x00, 0x00, 0xc6, 0xf0, 0xff, 0xff, 0x04, 0x00, 0x00, 0x00, 0x0c, 0x00, 0x00, 0x00,
  0x6b, 0x65, 0x72, 0x61, 0x73, 0x5f, 0x74, 0x65, 0x6e, 0x73, 0x6f, 0x72, 0x00, 0x00, 0x00, 0x00,
  0x03, 0x00, 0x00, 0x00, 0x5c, 0x00, 0x00, 0x00, 0x2c, 0x00, 0x00, 0x00, 0x04, 0x00, 0x00, 0x00,
  0xb8, 0xff, 0xff, 0xff, 0x1f, 0x00, 0x00, 0x00, 0x04, 0x00, 0x00, 0x00, 0x13, 0x00, 0x00, 0x00,
  0x43, 0x4f, 0x4e, 0x56, 0x45, 0x52, 0x53, 0x49, 0x4f, 0x4e, 0x5f, 0x4d, 0x45, 0x54, 0x41, 0x44,
  0x41, 0x54, 0x41, 0x00, 0xdc, 0xff, 0xff, 0xff, 0x1e, 0x00, 0x00, 0x00, 0x04, 0x00, 0x00, 0x00,
  0x13, 0x00, 0x00, 0x00, 0x6d, 0x69, 0x6e, 0x5f, 0x72, 0x75, 0x6e, 0x74, 0x69, 0x6d, 0x65, 0x5f,
  0x76, 0x65, 0x72, 0x73, 0x69, 0x6f, 0x6e, 0x00, 0x08, 0x00, 0x0c, 0x00, 0x08, 0x00, 0x04, 0x00,
  0x08, 0x00, 0x00, 0x00, 0x1d, 0x00, 0x00, 0x00, 0x04, 0x00, 0x00, 0x00, 0x13, 0x00, 0x00, 0x00,
  0x6d, 0x69, 0x6e, 0x5f, 0x72, 0x75, 0x6e, 0x74, 0x69, 0x6d, 0x65, 0x5f, 0x76, 0x65, 0x72, 0x73,
  0x69, 0x6f, 0x6e, 0x00, 0x20, 0x00, 0x00, 0x00, 0xfc, 0x0d, 0x00, 0x00, 0xf4, 0x0d, 0x00, 0x00,
  0xdc, 0x0d, 0x00, 0x00, 0xc4, 0x0d, 0x00, 0x00, 0x74, 0x0d, 0x00, 0x00, 0xe4, 0x0c, 0x00, 0x00,
  0xd4, 0x08, 0x00, 0x00, 0x44, 0x08, 0x00, 0x00, 0x14, 0x07, 0x00, 0x00, 0x84, 0x06, 0x00, 0x00,
  0x74, 0x04, 0x00, 0x00, 0x24, 0x04, 0x00, 0x00, 0x84, 0x03, 0x00, 0x00, 0x34, 0x03, 0x00, 0x00,
  0xa4, 0x02, 0x00, 0x00, 0x74, 0x02, 0x00, 0x00, 0x1c, 0x02, 0x00, 0x00, 0xec, 0x01, 0x00, 0x00,
  0x04, 0x01, 0x00, 0x00, 0xfc, 0x00, 0x00, 0x00, 0xf4, 0x00, 0x00, 0x00, 0xec, 0x00, 0x00, 0x00,
  0xe4, 0x00, 0x00, 0x00, 0xdc, 0x00, 0x00, 0x00, 0xd4, 0x00, 0x00, 0x00, 0xcc, 0x00, 0x00, 0x00,
  0xc4, 0x00, 0x00, 0x00, 0xbc, 0x00, 0x00, 0x00, 0xb4, 0x00, 0x00, 0x00, 0x94, 0x00, 0x00, 0x00,
  0x74, 0x00, 0x00, 0x00, 0x04, 0x00, 0x00, 0x00, 0xea, 0xf1, 0xff, 0xff, 0x04, 0x00, 0x00, 0x00,
  0x60, 0x00, 0x00, 0x00, 0x0c, 0x00, 0x00, 0x00, 0x08, 0x00, 0x0e, 0x00, 0x08, 0x00, 0x04, 0x00,
  0x08, 0x00, 0x00, 0x00, 0x10, 0x00, 0x00, 0x00, 0x28, 0x00, 0x00, 0x00, 0x00, 0x00, 0x06, 0x00,
  0x08, 0x00, 0x04, 0x00, 0x06, 0x00, 0x00, 0x00, 0x04, 0x00, 0x00, 0x00, 0x01, 0x00, 0x00, 0x00,
  0xeb, 0x03, 0x00, 0x00, 0x0c, 0x00, 0x18, 0x00, 0x14, 0x00, 0x10, 0x00, 0x0c, 0x00, 0x04, 0x00,
  0x0c, 0x00, 0x00, 0x00, 0x83, 0x41, 0x43, 0x3e, 0x8c, 0xa8, 0x23, 0xe6, 0x02, 0x00, 0x00, 0x00,
  0x02, 0x00, 0x00, 0x00, 0x04, 0x00, 0x00, 0x00, 0x06, 0x00, 0x00, 0x00, 0x32, 0x2e, 0x31, 0x38,
  0x2e, 0x30, 0x00, 0x00, 0x56, 0xf2, 0xff, 0xff, 0x04, 0x00, 0x00, 0x00, 0x10, 0x00, 0x00, 0x00,
  0x00, 0x00, 0x00, 0x00, 0x00, 0x00, 0x00, 0x00, 0x00, 0x00, 0x00, 0x00, 0x00, 0x00, 0x00, 0x00,
  0x72, 0xf2, 0xff, 0xff, 0x04, 0x00, 0x00, 0x00, 0x10, 0x00, 0x00, 0x00, 0x31, 0x2e, 0x31, 0x34,
  0x2e, 0x30, 0x00, 0x00, 0x00, 0x00, 0x00, 0x00, 0x00, 0x00, 0x00, 0x00, 0xc0, 0xcd, 0xff, 0xff,
  0xc4, 0xcd, 0xff, 0xff, 0xc8, 0xcd, 0xff, 0xff, 0xcc, 0xcd, 0xff, 0xff, 0xd0, 0xcd, 0xff, 0xff,
  0xd4, 0xcd, 0xff, 0xff, 0xd8, 0xcd, 0xff, 0xff, 0xdc, 0xcd, 0xff, 0xff, 0xe0, 0xcd, 0xff, 0xff,
  0xe4, 0xcd, 0xff, 0xff, 0xb6, 0xf2, 0xff, 0xff, 0x04, 0x00, 0x00, 0x00, 0xd8, 0x00, 0x00, 0x00,
  0xdf, 0xad, 0x94, 0x64, 0x08, 0x1a, 0xe3, 0x0b, 0x32, 0x7f, 0x08, 0xc9, 0x47, 0xca, 0xf7, 0x03,
  0xad, 0x9d, 0xd7, 0x05, 0x5f, 0xf5, 0x00, 0x0a, 0x01, 0x21, 0x43, 0x41, 0xda, 0x52, 0xf9, 0xfa,
  0xd2, 0x13, 0x3b, 0xdc, 0xb3, 0x4a, 0xef, 0x16, 0x55, 0x08, 0x0d, 0xb4, 0x71, 0xa9, 0x7f, 0xc2,
  0xa1, 0xbd, 0xfc, 0x0f, 0x3c, 0xf9, 0xea, 0x10, 0x12, 0x7f, 0x2b, 0x27, 0x60, 0x58, 0x1c, 0x9f,
  0x98, 0xb2, 0xbc, 0xd7, 0x68, 0xe8, 0x3d, 0x4d, 0xd4, 0x13, 0xe8, 0x37, 0x26, 0x53, 0xbb, 0xec,
  0xf1, 0x46, 0x6c, 0x5d, 0xe1, 0x89, 0x90, 0xfe, 0x2d, 0x1d, 0xa3, 0x9d, 0x1e, 0xee, 0x0c, 0x32,
  0x1d, 0x47, 0xf9, 0x32, 0xd9, 0xf1, 0x4f, 0x02, 0x5c, 0xae, 0x34, 0x81, 0xe0, 0x13, 0x0d, 0xde,
  0xd4, 0xcf, 0xee, 0x36, 0x7f, 0x69, 0xf9, 0x4d, 0xd6, 0x5f, 0xaf, 0xdb, 0x51, 0xa7, 0xa6, 0x9c,
  0xb8, 0xa9, 0x1d, 0x49, 0xa0, 0x07, 0x12, 0x2d, 0xf8, 0x21, 0x0a, 0xef, 0x14, 0xec, 0xa6, 0xf3,
  0x01, 0x43, 0x0c, 0xc8, 0x0c, 0xd0, 0x08, 0xe4, 0xbf, 0x43, 0x7f, 0x2a, 0xfc, 0x18, 0xdd, 0xfa,
  0x14, 0x2b, 0xe5, 0x25, 0xfe, 0x24, 0x90, 0xea, 0x16, 0xca, 0x3d, 0x16, 0xcf, 0xf9, 0x70, 0x26,
  0xf4, 0x37, 0x28, 0x26, 0xb7, 0xe6, 0x5a, 0x08, 0x25, 0xd4, 0xfa, 0x81, 0xdd, 0x86, 0xef, 0xff,
  0x33, 0x03, 0x26, 0xd7, 0xc8, 0xa8, 0x48, 0x26, 0x04, 0x04, 0xc5, 0x15, 0xe4, 0xe9, 0xa3, 0x7f,
  0xfa, 0x48, 0xcf, 0x4b, 0x53, 0x3f, 0xe8, 0x99, 0x9a, 0xf3, 0xff, 0xff, 0x04, 0x00, 0x00, 0x00,
  0x20, 0x00, 0x00, 0x00, 0xec, 0xf7, 0xff, 0xff, 0x2a, 0xd1, 0xff, 0xff, 0xc6, 0x6e, 0xff, 0xff,
  0x56, 0xd8, 0xff, 0xff, 0xb0, 0x55, 0x00, 0x00, 0x82, 0xe9, 0xff, 0xff, 0xe8, 0xfa, 0xff, 0xff,
  0x45, 0xff, 0xff, 0xff, 0xc6, 0xf3, 0xff, 0xff, 0x04, 0x00, 0x00, 0x00, 0x48, 0x00, 0x00, 0x00,
  0xbf, 0xc2, 0x14, 0x61, 0x1c, 0x81, 0xe9, 0x41, 0x75, 0x22, 0x5e, 0xe3, 0x94, 0x33, 0xfc, 0xa5,
  0x81, 0xe9, 0x8d, 0xd9, 0x2e, 0xe0, 0xf5, 0xfa, 0x01, 0xea, 0x7f, 0xb8, 0xec, 0xdb, 0xc3, 0x3e,
  0xa1, 0xf5, 0xea, 0xbc, 0xa7, 0x0f, 0x59, 0xb8, 0x3e, 0x81, 0xbe, 0xd3, 0x2a, 0x1f, 0xc6, 0xe9,
  0xc1, 0x0a, 0x64, 0xcd, 0x81, 0xe5, 0x02, 0x23, 0xcc, 0xcc, 0xe5, 0x7f, 0x03, 0x47, 0x81, 0x7f,
  0x37, 0x92, 0x6e, 0x51, 0xc5, 0x15, 0x12, 0x21, 0x1a, 0xf4, 0xff, 0xff, 0x04, 0x00, 0x00, 0x00,
  0x20, 0x00, 0x00, 0x00, 0xdf, 0x02, 0x00, 0x00, 0xa2, 0x0b, 0x00, 0x00, 0x65, 0xf9, 0xff, 0xff,
  0x9d, 0xff, 0xff, 0xff, 0xaf, 0x07, 0x00, 0x00, 0x21, 0x00, 0x00, 0x00, 0x26, 0x03, 0x00, 0x00,
  0x93, 0xff, 0xff, 0xff, 0x46, 0xf4, 0xff, 0xff, 0x04, 0x00, 0x00, 0x00, 0x80, 0x00, 0x00, 0x00,
  0x01, 0xe1, 0xda, 0x81, 0xe5, 0x0b, 0xe1, 0x12, 0x60, 0x31, 0x53, 0x9f, 0x6f, 0x81, 0xe1, 0x6e,
  0x1e, 0x81, 0x0a, 0x76, 0x5a, 0x13, 0x2b, 0xa5, 0x81, 0x20, 0xd8, 0x52, 0xa8, 0xcc, 0xbe, 0x83,
  0x07, 0xf1, 0xe3, 0x7f, 0x51, 0xb1, 0xb2, 0x2b, 0x7f, 0xbd, 0x2c, 0xfa, 0x19, 0xd0, 0x75, 0x9c,
  0x0d, 0x32, 0xec, 0x2f, 0x7f, 0xbc, 0xd7, 0xff, 0xe0, 0xa0, 0x7f, 0x18, 0x0b, 0xf7, 0xef, 0x1e,
  0x68, 0x3b, 0x00, 0x18, 0x13, 0xe7, 0x7f, 0xd7, 0xef, 0x02, 0x7f, 0x29, 0x03, 0x0d, 0x0d, 0x13,
  0x7f, 0x84, 0x08, 0x37, 0xc8, 0x2c, 0x7f, 0x3e, 0xe8, 0xf7, 0x88, 0x49, 0x08, 0xac, 0xb1, 0x81,
  0xf5, 0x1f, 0x1c, 0x81, 0x3a, 0x00, 0x03, 0xeb, 0xb0, 0xfb, 0xbc, 0xb1, 0x1a, 0xe6, 0x1f, 0x81,
  0x15, 0xa3, 0x44, 0x81, 0x20, 0xc1, 0xfc, 0xf5, 0x45, 0xf5, 0xb8, 0x3d, 0x7f, 0xc1, 0x53, 0xe4,
  0xd2, 0xf4, 0xff, 0xff, 0x04, 0x00, 0x00, 0x00, 0x40, 0x00, 0x00, 0x00, 0x42, 0x02, 0x00, 0x00,
  0x69, 0xfe, 0xff, 0xff, 0xcd, 0xff, 0xff, 0xff, 0xea, 0x02, 0x00, 0x00, 0xc4, 0xff, 0xff, 0xff,
  0x6e, 0xff, 0xff, 0xff, 0x28, 0xff, 0xff, 0xff, 0x8c, 0xff, 0xff, 0xff, 0xd5, 0xfd, 0xff, 0xff,
  0x59, 0xfe, 0xff, 0xff, 0xfc, 0xfe, 0xff, 0xff, 0xbd, 0x02, 0x00, 0x00, 0x62, 0xff, 0xff, 0xff,
  0x3d, 0x02, 0x00, 0x00, 0x23, 0x01, 0x00, 0x00, 0xc7, 0xfe, 0xff, 0xff, 0x1e, 0xf5, 0xff, 0xff,
  0x04, 0x00, 0x00, 0x00, 0x90, 0x00, 0x00, 0x00, 0xc3, 0xea, 0xfd, 0x6b, 0x88, 0xcf, 0xce, 0xf9,
  0x25, 0x76, 0xe8, 0xdc, 0x38, 0x5d, 0x37, 0x01, 0x81, 0x7f, 0x13, 0xca, 0xc3, 0x07, 0x88, 0x40,
  0x08, 0x61, 0x37, 0x6f, 0x11, 0xd6, 0xdd, 0x39, 0x24, 0x25, 0x61, 0x71, 0x81, 0x7f, 0xf3, 0x2e,
  0x25, 0x41, 0x81, 0x1f, 0xf7, 0x81, 0xec, 0x43, 0xe5, 0xea, 0xa8, 0x81, 0x74, 0x0c, 0xdd, 0x24,
  0x08, 0x46, 0x28, 0x67, 0x4b, 0xf5, 0x2f, 0x10, 0x9e, 0x6c, 0x19, 0x62, 0xe8, 0x3e, 0xb3, 0xfb,
  0x7f, 0x6f, 0xbb, 0x7f, 0x7f, 0xab, 0xed, 0x5f, 0xe9, 0x5d, 0x65, 0x1e, 0xbd, 0x19, 0xc1, 0x81,
  0x43, 0x5a, 0xd7, 0x25, 0x26, 0xd9, 0x18, 0x7f, 0xe9, 0xd2, 0xa9, 0x37, 0x49, 0x2e, 0xd3, 0x05,
  0x3d, 0x7f, 0xf4, 0x0d, 0xee, 0xc7, 0x52, 0x13, 0x19, 0xd5, 0x27, 0x6b, 0x15, 0xc6, 0x81, 0xed,
  0x71, 0x64, 0xa1, 0xff, 0x3c, 0x2c, 0x7f, 0x42, 0xe0, 0x35, 0x7f, 0xb3, 0xd9, 0x09, 0x9a, 0x89,
  0x07, 0x1a, 0xe2, 0x4d, 0x05, 0xf3, 0xd7, 0x2a, 0xba, 0xf5, 0xff, 0xff, 0x04, 0x00, 0x00, 0x00,
  0x40, 0x00, 0x00, 0x00, 0x36, 0x03, 0x00, 0x00, 0x3f, 0xfd, 0xff, 0xff, 0x1e, 0xfe, 0xff, 0xff,
  0x7f, 0xfd, 0xff, 0xff, 0x36, 0x00, 0x00, 0x00, 0x6b, 0xfe, 0xff, 0xff, 0xf1, 0x06, 0x00, 0x00,
  0x53, 0x01, 0x00, 0x00, 0x30, 0xfc, 0xff, 0xff, 0x93, 0xf6, 0xff, 0xff, 0xdd, 0x01, 0x00, 0x00,
  0x8f, 0xfc, 0xff, 0xff, 0xed, 0xfe, 0xff, 0xff, 0xc1, 0x01, 0x00, 0x00, 0x71, 0xfe, 0xff, 0xff,
  0xed, 0xfb, 0xff, 0xff, 0x06, 0xf6, 0xff, 0xff, 0x04, 0x00, 0x00, 0x00, 0x00, 0x02, 0x00, 0x00,
  0x49, 0x1c, 0xdf, 0x04, 0x81, 0x00, 0xcc, 0x15, 0x5c, 0x59, 0x55, 0x1c, 0xed, 0xb8, 0x64, 0xd7,
  0xb6, 0x11, 0x35, 0xd8, 0x07, 0xed, 0xa7, 0xcb, 0xbc, 0x03, 0x01, 0x1f, 0x13, 0x81, 0x39, 0x08,
  0xfe, 0x81, 0xfe, 0x6f, 0x53, 0x18, 0x35, 0x6c, 0x6f, 0xaf, 0x0b, 0x40, 0x0e, 0x87, 0x0c, 0x01,
  0x56, 0xda, 0x89, 0xf7, 0xbd, 0x81, 0xa4, 0xca, 0xfa, 0xf8, 0xdd, 0x1a, 0x56, 0xea, 0x7a, 0x49,
  0xdc, 0x3b, 0x81, 0xd2, 0xb8, 0x91, 0x2e, 0x32, 0xdb, 0x34, 0xf8, 0x21, 0xad, 0xd5, 0xd5, 0x2f,
  0x17, 0x38, 0xef, 0xfc, 0xe8, 0xe0, 0xd8, 0x57, 0xc5, 0xd4, 0xdf, 0xf8, 0xbb, 0x7f, 0xaa, 0xe3,
  0x7f, 0x34, 0x77, 0x21, 0xbf, 0xc3, 0x13, 0x2e, 0x6c, 0xa1, 0xbc, 0x3d, 0x1c, 0x09, 0x3c, 0x06,
  0x4e, 0xcd, 0x4f, 0x24, 0xf1, 0xcd, 0xdc, 0xbf, 0x05, 0xe8, 0x18, 0x04, 0x81, 0x9e, 0x25, 0x19,
  0x3a, 0x9e, 0xb1, 0x9a, 0x2b, 0x97, 0xb7, 0xb3, 0xd9, 0xb5, 0x48, 0xe1, 0xf7, 0xe1, 0x81, 0xf7,
  0xdf, 0x81, 0xbc, 0xbf, 0x16, 0x00, 0xa2, 0x4a, 0xa8, 0x74, 0xf8, 0x31, 0xc6, 0xe1, 0x3a, 0xdc,
  0xea, 0xe0, 0xd8, 0x7f, 0x69, 0x32, 0xbc, 0x20, 0x2f, 0x06, 0xee, 0x3c, 0x3a, 0x41, 0x39, 0x24,
  0x12, 0x13, 0x15, 0x07, 0xdb, 0x0d, 0x66, 0x20, 0x96, 0x48, 0x81, 0x48, 0xe9, 0xff, 0x65, 0x0b,
  0x16, 0xae, 0x6a, 0x8f, 0xbc, 0xff, 0xd3, 0x35, 0x0d, 0xb8, 0xa2, 0x36, 0xba, 0x7f, 0xbe, 0xf7,
  0xa2, 0xb7, 0x0f, 0xa2, 0xca, 0x14, 0xe6, 0x2a, 0x09, 0xf7, 0x28, 0x4c, 0xb1, 0xa5, 0x7f, 0xb4,
  0xed, 0x38, 0xd3, 0x0c, 0x1b, 0x0a, 0x7a, 0xcb, 0xf7, 0xdd, 0x2d, 0x81, 0x65, 0x0e, 0xd4, 0x32,
  0x94, 0x43, 0xb4, 0x9f, 0x05, 0xe7, 0xe2, 0xf1, 0xb3, 0xe8, 0x0f, 0xc7, 0xe6, 0xce, 0x12, 0x81,
  0x7f, 0x27, 0x03, 0x97, 0x1a, 0x02, 0x13, 0xf9, 0xf9, 0x2c, 0x89, 0xdc, 0x61, 0x1e, 0x8c, 0x3a,
  0x3a, 0x81, 0x3d, 0xc8, 0xc7, 0x1f, 0xb6, 0xe0, 0x4e, 0xcc, 0x48, 0x1b, 0x31, 0xa6, 0xf3, 0x2d,
  0x24, 0xe6, 0x03, 0xdd, 0x05, 0xdc, 0xd2, 0xc0, 0xe2, 0x18, 0x03, 0xdf, 0xe1, 0x44, 0xfb, 0x81,
  0x3c, 0x64, 0x66, 0x7f, 0xc1, 0x04, 0x09, 0x23, 0x0c, 0xf5, 0xcf, 0xed, 0x5e, 0x33, 0x1d, 0xf3,
  0xf6, 0x3e, 0x81, 0x6a, 0xc9, 0x31, 0x14, 0x2d, 0xec, 0xcc, 0xf1, 0xda, 0x5c, 0x55, 0x2d, 0x67,
  0xc3, 0xe0, 0x01, 0x01, 0x03, 0x33, 0xdd, 0x1a, 0x5b, 0x7f, 0xc9, 0x0a, 0x75, 0xc6, 0x2f, 0xeb,
  0xfb, 0xf8, 0x1c, 0x05, 0xe8, 0xe9, 0xd8, 0xef, 0x07, 0xa9, 0x38, 0x01, 0x7f, 0xf1, 0x38, 0xdd,
  0xf4, 0xd8, 0xe7, 0xf6, 0x7f, 0xe0, 0x1e, 0xf9, 0x3b, 0xd6, 0x08, 0x59, 0xc2, 0xd0, 0x10, 0xce,
  0xfa, 0x02, 0xc9, 0xf4, 0xcd, 0xb6, 0xfd, 0xed, 0x85, 0xbf, 0x05, 0x0a, 0x7f, 0x1d, 0x47, 0x0f,
  0x27, 0x6d, 0x16, 0xa7, 0x07, 0x1e, 0x81, 0x22, 0xfb, 0xeb, 0x35, 0x5c, 0xfa, 0x3f, 0x3d, 0x16,
  0x52, 0xf2, 0xf2, 0xf6, 0x34, 0x31, 0x8e, 0x12, 0x7f, 0x32, 0x40, 0x58, 0xd4, 0x03, 0x53, 0xc7,
  0x1b, 0x26, 0x09, 0xb2, 0x16, 0x32, 0x02, 0xd5, 0x27, 0x81, 0x01, 0x1a, 0x73, 0x4d, 0x46, 0xf8,
  0x56, 0x50, 0xf1, 0x2a, 0x16, 0x2a, 0x56, 0xdb, 0x3e, 0x7e, 0xa9, 0xb2, 0x81, 0x46, 0x56, 0x5f,
  0x75, 0xa0, 0x0a, 0x41, 0x57, 0xd5, 0xf2, 0x3c, 0x57, 0x06, 0x15, 0x7f, 0x53, 0xc0, 0xf3, 0xba,
  0xd7, 0x8c, 0xb8, 0x44, 0x0f, 0x69, 0x81, 0x63, 0xfb, 0x43, 0xe6, 0xe5, 0xff, 0x12, 0x2a, 0xb3,
  0x29, 0x1e, 0x37, 0x97, 0xcf, 0x06, 0xc8, 0x4f, 0x81, 0x31, 0xfa, 0x0f, 0xa1, 0x05, 0x04, 0xba,
  0x12, 0xf8, 0xff, 0xff, 0x04, 0x00, 0x00, 0x00, 0x80, 0x00, 0x00, 0x00, 0x5e, 0xfb, 0xff, 0xff,
  0x42, 0x04, 0x00, 0x00, 0x64, 0xfc, 0xff, 0xff, 0xec, 0xff, 0xff, 0xff, 0xad, 0x04, 0x00, 0x00,
  0x28, 0x02, 0x00, 0x00, 0x2f, 0xf8, 0xff, 0xff, 0xf7, 0x02, 0x00, 0x00, 0x45, 0x0c, 0x00, 0x00,
  0x5d, 0x04, 0x00, 0x00, 0x81, 0xfa, 0xff, 0xff, 0x85, 0xfb, 0xff, 0xff, 0x6c, 0x01, 0x00, 0x00,
  0x87, 0x03, 0x00, 0x00, 0x07, 0xfe, 0xff, 0xff, 0x1c, 0x0b, 0x00, 0x00, 0xa8, 0xfc, 0xff, 0xff,
  0x1e, 0x00, 0x00, 0x00, 0x62, 0x03, 0x00, 0x00, 0x70, 0xf7, 0xff, 0xff, 0xb1, 0xf9, 0xff, 0xff,
  0x80, 0xfb, 0xff, 0xff, 0x42, 0xff, 0xff, 0xff, 0x11, 0x01, 0x00, 0x00, 0x41, 0x01, 0x00, 0x00,
  0xb9, 0xfc, 0xff, 0xff, 0x15, 0xfa, 0xff, 0xff, 0x0a, 0xfb, 0xff, 0xff, 0x96, 0xf8, 0xff, 0xff,
  0x9e, 0xfa, 0xff, 0xff, 0x15, 0x02, 0x00, 0x00, 0x22, 0x03, 0x00, 0x00, 0x9e, 0xf8, 0xff, 0xff,
  0x04, 0x00, 0x00, 0x00, 0x20, 0x01, 0x00, 0x00, 0x7f, 0x09, 0x94, 0x03, 0xb4, 0x28, 0x9f, 0x29,
  0x2f, 0xf9, 0x7f, 0x9d, 0x81, 0xfd, 0x12, 0x46, 0x1c, 0xda, 0x61, 0x17, 0x7f, 0xe7, 0xdb, 0x7f,
  0xee, 0x4b, 0xb4, 0xf9, 0x54, 0x7f, 0x2f, 0x2c, 0x50, 0xf4, 0xd1, 0xf2, 0x81, 0x4c, 0x24, 0x3e,
  0x0c, 0xed, 0xc9, 0xad, 0x93, 0xcf, 0x7f, 0x1f, 0x06, 0xd6, 0x7a, 0xf8, 0x3c, 0xe6, 0xd2, 0x71,
  0x19, 0x57, 0x56, 0xf9, 0x0e, 0x24, 0xec, 0x77, 0x37, 0xd3, 0xf1, 0xe6, 0xd1, 0x7f, 0x7f, 0x0f,
  0x7f, 0x02, 0xee, 0xcc, 0xe0, 0x3a, 0x57, 0x05, 0xf1, 0xc0, 0x4b, 0x91, 0x1b, 0x0e, 0xb0, 0x10,
  0xc7, 0xe9, 0xc5, 0x7b, 0x61, 0xe7, 0x94, 0x7f, 0x01, 0x1b, 0x81, 0xf8, 0xb8, 0x32, 0xda, 0x07,
  0x7c, 0x26, 0x65, 0x02, 0xa6, 0x29, 0xcf, 0x7f, 0xea, 0xd7, 0x6d, 0xc0, 0x37, 0xc8, 0xfb, 0x1e,
  0x24, 0x28, 0x56, 0x81, 0x2f, 0x3e, 0x81, 0x71, 0x4d, 0xf9, 0x0e, 0xd0, 0xdc, 0x51, 0xc2, 0x3f,
  0x23, 0x0c, 0xea, 0xaa, 0xc1, 0x03, 0x56, 0x71, 0x7f, 0x25, 0xf7, 0x51, 0x1a, 0xec, 0xf0, 0x23,
  0x0c, 0x60, 0xcd, 0xee, 0x20, 0xf9, 0x16, 0x73, 0x36, 0x81, 0x01, 0xcb, 0xb8, 0x5a, 0x3d, 0x29,
  0x38, 0x13, 0x83, 0x81, 0xf2, 0x14, 0x49, 0x0b, 0xdc, 0xd0, 0x7f, 0xbc, 0x19, 0x23, 0x03, 0x30,
  0x81, 0x4b, 0x29, 0x6d, 0x45, 0xf8, 0x21, 0x6f, 0x44, 0x21, 0x03, 0xed, 0xd1, 0x71, 0x0e, 0xec,
  0x07, 0xfd, 0x5e, 0xed, 0x97, 0xfd, 0xef, 0x2a, 0x0a, 0x81, 0x33, 0xbf, 0x10, 0x15, 0xa6, 0x15,
  0x34, 0xdc, 0x7f, 0xc2, 0x7f, 0x39, 0x44, 0x74, 0x5d, 0x0a, 0x11, 0xcf, 0xcf, 0x57, 0x04, 0x41,
  0x0b, 0x81, 0x57, 0xf9, 0xad, 0x75, 0x41, 0x26, 0x6e, 0xaa, 0x1a, 0x06, 0x09, 0x81, 0xe0, 0x11,
  0x4a, 0x7f, 0x06, 0xf1, 0x42, 0x0d, 0xef, 0x4b, 0x09, 0x01, 0x13, 0x81, 0xb2, 0x2c, 0x1a, 0x7f,
  0x28, 0xb7, 0xf1, 0x09, 0x1c, 0x81, 0x31, 0xd7, 0x14, 0xfe, 0x17, 0x81, 0x1a, 0x2e, 0x81, 0x5b,
  0xda, 0x5f, 0xee, 0x5c, 0x26, 0x5d, 0x48, 0x10, 0xca, 0xf9, 0xff, 0xff, 0x04, 0x00, 0x00, 0x00,
  0x80, 0x00, 0x00, 0x00, 0x74, 0xf7, 0xff, 0xff, 0xf3, 0xff, 0xff, 0xff, 0x1d, 0x03, 0x00, 0x00,
  0xb4, 0x04, 0x00, 0x00, 0xb6, 0x07, 0x00, 0x00, 0x64, 0xf6, 0xff, 0xff, 0x17, 0xff, 0xff, 0xff,
  0xd3, 0xf9, 0xff, 0xff, 0x2f, 0xf8, 0xff, 0xff, 0x5c, 0x01, 0x00, 0x00, 0x9e, 0xff, 0xff, 0xff,
  0xe2, 0x06, 0x00, 0x00, 0xb0, 0x07, 0x00, 0x00, 0x4d, 0xff, 0xff, 0xff, 0x72, 0xfc, 0xff, 0xff,
  0x45, 0xfb, 0xff, 0xff, 0x03, 0xfd, 0xff, 0xff, 0xcd, 0x03, 0x00, 0x00, 0x68, 0xfa, 0xff, 0xff,
  0xb8, 0x04, 0x00, 0x00, 0xaa, 0xfc, 0xff, 0xff, 0x7f, 0x00, 0x00, 0x00, 0x25, 0x06, 0x00, 0x00,
  0x34, 0xf9, 0xff, 0xff, 0xe0, 0xff, 0xff, 0xff, 0x07, 0xf9, 0xff, 0xff, 0xe4, 0xfe, 0xff, 0xff,
  0x4a, 0xff, 0xff, 0xff, 0xa9, 0xf6, 0xff, 0xff, 0xa6, 0xfb, 0xff, 0xff, 0x37, 0xff, 0xff, 0xff,
  0xa5, 0xf5, 0xff, 0xff, 0x56, 0xfa, 0xff, 0xff, 0x04, 0x00, 0x00, 0x00, 0x00, 0x04, 0x00, 0x00,
  0xda, 0x0c, 0x24, 0x32, 0x49, 0x65, 0xf0, 0xc9, 0x15, 0xce, 0xda, 0xca, 0x9f, 0xf9, 0x12, 0xf7,
  0x09, 0x79, 0x3f, 0x0a, 0xbf, 0xae, 0x4c, 0xa6, 0x0f, 0xea, 0x2f, 0xfd, 0xf8, 0x4d, 0x23, 0x7f,
  0x03, 0xf3, 0x26, 0xdf, 0xcd, 0x26, 0x0b, 0xc1, 0xce, 0xf7, 0xf2, 0xed, 0xfd, 0x39, 0x5f, 0xee,
  0x06, 0xdd, 0xe7, 0x81, 0x4a, 0xea, 0xcf, 0x33, 0x64, 0x0e, 0x07, 0x3e, 0x08, 0xd1, 0xd6, 0xad,
  0x16, 0x37, 0x41, 0xb8, 0x70, 0xd0, 0x9d, 0xe5, 0x62, 0x90, 0x9e, 0xee, 0x81, 0xf4, 0xce, 0xf4,
  0x3a, 0xe1, 0xbc, 0x16, 0xb4, 0xd8, 0x2c, 0xa8, 0xa2, 0xcf, 0xa3, 0xb4, 0xa6, 0x18, 0xf3, 0xd9,
  0xe0, 0xa5, 0x0b, 0x81, 0xf3, 0x0e, 0xb5, 0xb1, 0x14, 0xf9, 0xef, 0xef, 0xc4, 0x12, 0xc7, 0xdb,
  0x0f, 0x11, 0xfd, 0x11, 0xcd, 0xcd, 0xd1, 0xb5, 0xd8, 0x92, 0xd0, 0xa3, 0xce, 0xf2, 0xf6, 0x41,
  0xe6, 0xf2, 0x29, 0xdb, 0x96, 0xdb, 0x27, 0x1d, 0x2b, 0xdf, 0x35, 0x3d, 0x97, 0x1a, 0x3b, 0xff,
  0x6b, 0x34, 0xf1, 0x42, 0x1a, 0xf7, 0xf7, 0x28, 0x03, 0x28, 0x4e, 0x14, 0xb6, 0x7f, 0x48, 0xcb,
  0x01, 0x48, 0xf0, 0x0b, 0xde, 0xdd, 0x2d, 0x26, 0x2b, 0x3d, 0x7f, 0x39, 0x01, 0x3d, 0xd1, 0x09,
  0x0c, 0x2f, 0xed, 0x35, 0x5e, 0xdf, 0x1f, 0x51, 0xc4, 0x56, 0x29, 0xfc, 0xd5, 0x6b, 0x5e, 0x14,
  0xc2, 0xc3, 0x62, 0xea, 0xbb, 0x61, 0xe1, 0x0f, 0x43, 0x98, 0xcb, 0x81, 0x8e, 0x06, 0x28, 0x1a,
  0xff, 0x58, 0x52, 0x1b, 0xbb, 0x05, 0x4b, 0x47, 0x0f, 0xaf, 0xfb, 0xe2, 0xfc, 0xaf, 0x51, 0x13,
  0x0b, 0xef, 0xc6, 0xee, 0x3a, 0x14, 0xb8, 0x16, 0x4a, 0xae, 0xab, 0x15, 0xfc, 0xe2, 0xe6, 0xf7,
  0xff, 0xc7, 0x2e, 0xf8, 0xdd, 0x3c, 0x68, 0x0b, 0xf1, 0xb0, 0x81, 0xb6, 0xe3, 0xb0, 0xd0, 0x63,
  0xd7, 0x9c, 0xac, 0xbd, 0x41, 0x56, 0xd5, 0xfc, 0x5f, 0xd5, 0xd1, 0xae, 0xfa, 0xbe, 0xd4, 0x10,
  0xf9, 0x81, 0x65, 0x48, 0xb1, 0x35, 0x12, 0xe3, 0x0c, 0x9e, 0xc0, 0xd8, 0x1d, 0xe9, 0xdb, 0x25,
  0x0a, 0x49, 0xf1, 0xec, 0xf2, 0xcb, 0x2a, 0x40, 0x06, 0xce, 0x49, 0x2f, 0xf5, 0x1d, 0xd0, 0x32,
  0x05, 0x0b, 0xd0, 0xdd, 0x26, 0x12, 0x06, 0x50, 0x7f, 0x32, 0xd0, 0x2e, 0x1d, 0x04, 0xd7, 0x05,
  0xe6, 0xcb, 0x4d, 0x87, 0xfc, 0x1d, 0xb5, 0xfc, 0x47, 0x1b, 0xd8, 0xcf, 0xee, 0x1c, 0xab, 0xcc,
  0x02, 0x81, 0x11, 0x4a, 0x19, 0x6a, 0x4d, 0xe4, 0xdc, 0x97, 0xbb, 0xe6, 0xec, 0xb5, 0xbe, 0xe8,
  0x18, 0x07, 0x0e, 0xbb, 0xfc, 0xff, 0x33, 0x53, 0xf8, 0xdd, 0xe5, 0x32, 0x82, 0xf1, 0x7f, 0x11,
  0xd1, 0xb6, 0x06, 0xf7, 0x19, 0x0c, 0xc5, 0x33, 0x78, 0xfe, 0x00, 0x14, 0xe6, 0x5f, 0x3c, 0xbe,
  0xcf, 0x45, 0x1a, 0x0b, 0xf0, 0xe5, 0x4a, 0x30, 0xf9, 0xbf, 0x1a, 0x27, 0xcd, 0x0e, 0x00, 0x1b,
  0x0a, 0x1c, 0xc3, 0x06, 0x2e, 0x25, 0xd2, 0x3a, 0x7f, 0x70, 0x25, 0xe3, 0x18, 0x48, 0xe0, 0xed,
  0xb2, 0x38, 0x97, 0xdd, 0x24, 0xf8, 0x7f, 0x19, 0xe5, 0xb0, 0x3c, 0x11, 0xe8, 0x2d, 0x30, 0x17,
  0x56, 0xa4, 0xd9, 0x2a, 0x42, 0x3b, 0xe4, 0x3a, 0x48, 0xf6, 0x0f, 0xfa, 0xe6, 0x25, 0x14, 0xf6,
  0xa2, 0x24, 0xec, 0x8d, 0xa1, 0x1f, 0xac, 0xcd, 0x78, 0xb9, 0xfd, 0x39, 0x8a, 0x3b, 0x3c, 0x25,
  0x81, 0x3e, 0x08, 0x4e, 0x24, 0xc1, 0x3d, 0xc6, 0x1a, 0x8e, 0xd4, 0xdf, 0xb2, 0x99, 0xef, 0x65,
  0xcb, 0x2a, 0xc6, 0x27, 0xf4, 0x74, 0xdd, 0x23, 0xd7, 0x06, 0xcd, 0xca, 0xee, 0x3a, 0xe3, 0x2c,
  0x46, 0xc3, 0x3b, 0xe4, 0x40, 0x13, 0x2c, 0xd8, 0xc9, 0x0a, 0xf6, 0xea, 0xe0, 0x0e, 0xdf, 0x7f,
  0xe6, 0x41, 0xcc, 0x87, 0x2e, 0xd3, 0x5f, 0xec, 0xd3, 0xf4, 0x34, 0x20, 0x9a, 0x13, 0x7f, 0x35,
  0xfa, 0x30, 0xda, 0x14, 0xe8, 0x34, 0xbd, 0x49, 0x4a, 0xc9, 0xe8, 0x23, 0xfa, 0xfe, 0x0f, 0xef,
  0xbb, 0x03, 0x55, 0x2a, 0x0b, 0x72, 0xe7, 0x81, 0x33, 0x74, 0xcf, 0xa4, 0x8e, 0x45, 0x93, 0xf5,
  0xf7, 0x4c, 0x2e, 0x8d, 0x3b, 0xcf, 0xa8, 0x1f, 0xdf, 0xcc, 0xd1, 0xc9, 0x03, 0xf5, 0xbc, 0x52,
  0xb8, 0x10, 0xc4, 0xfb, 0x04, 0xbd, 0x7f, 0x2e, 0xaa, 0x21, 0xd7, 0xd3, 0xdf, 0xff, 0x69, 0x3e,
  0xec, 0x63, 0xea, 0x23, 0x07, 0xca, 0xaf, 0xcf, 0x37, 0x17, 0x06, 0x2c, 0xf2, 0x3f, 0xfd, 0xea,
  0x24, 0xfe, 0xee, 0xd5, 0xcf, 0x2c, 0xbc, 0xcd, 0xfe, 0xf3, 0xcf, 0xfe, 0xbe, 0xe9, 0xf3, 0x15,
  0x81, 0xb9, 0x30, 0xe7, 0xc9, 0x1f, 0x4f, 0xe9, 0xf9, 0x0a, 0xde, 0x04, 0xed, 0xc9, 0x0f, 0x31,
  0xde, 0x34, 0xdf, 0x24, 0xb9, 0xd2, 0x21, 0x24, 0xc9, 0x00, 0x4a, 0x45, 0xcc, 0x08, 0x19, 0x25,
  0x17, 0xca, 0x0d, 0x93, 0xab, 0x2a, 0x8f, 0x28, 0x10, 0x65, 0x5b, 0x7f, 0xaf, 0xd9, 0x0e, 0xa9,
  0xde, 0x4b, 0x34, 0xec, 0x26, 0xe2, 0x15, 0x16, 0xdd, 0x21, 0x05, 0xf7, 0xdc, 0x2d, 0x3c, 0x36,
  0xe2, 0xcb, 0x00, 0x81, 0x21, 0x40, 0xfb, 0x78, 0xfe, 0xe4, 0xf0, 0x41, 0xf1, 0x40, 0x17, 0xd6,
  0xcc, 0x6d, 0xf6, 0xf4, 0x1b, 0xdc, 0x51, 0x31, 0xd8, 0x40, 0x15, 0xd8, 0x0c, 0x13, 0x3f, 0x43,
  0x58, 0x28, 0xa0, 0x81, 0xe3, 0xcc, 0xdc, 0xbb, 0x4b, 0x4e, 0xf3, 0x59, 0xc2, 0x05, 0x07, 0xca,
  0x2f, 0x3f, 0x32, 0xfb, 0xca, 0x6e, 0xe5, 0x06, 0xbe, 0x27, 0xe0, 0x81, 0xa3, 0x1a, 0xb9, 0xd5,
  0xc1, 0x29, 0x30, 0x01, 0xf4, 0x48, 0x40, 0x19, 0xdb, 0xaf, 0x06, 0x0d, 0x6a, 0xcd, 0x00, 0x51,
  0x01, 0x56, 0xcc, 0x34, 0x57, 0xf4, 0x23, 0xd1, 0x9e, 0xe8, 0x5d, 0xed, 0xe0, 0x5d, 0x63, 0x5c,
  0x31, 0x1a, 0xd7, 0x13, 0xa9, 0x19, 0xae, 0x59, 0x32, 0x3c, 0xf4, 0x7f, 0x91, 0x07, 0x54, 0xbd,
  0xd5, 0xf3, 0x89, 0x1c, 0x31, 0xf2, 0x30, 0x66, 0xf0, 0x23, 0x2d, 0xec, 0xce, 0x42, 0x25, 0x24,
  0x52, 0xb3, 0xfd, 0xb5, 0xee, 0x3d, 0xcb, 0x48, 0x7f, 0xb6, 0x36, 0x75, 0xbc, 0x11, 0x42, 0xd0,
  0x1f, 0x61, 0x43, 0x87, 0xea, 0x08, 0xd3, 0xba, 0xca, 0x39, 0x5a, 0xbd, 0x9a, 0x3d, 0x14, 0xe8,
  0xea, 0xdb, 0xa6, 0xd3, 0x5c, 0x26, 0xc1, 0xf6, 0xd4, 0x74, 0x7f, 0x65, 0x86, 0xef, 0xd4, 0xb8,
  0xbf, 0x29, 0x38, 0xcc, 0xd7, 0xfc, 0x2a, 0x65, 0xd9, 0xec, 0x3a, 0x28, 0x01, 0x1c, 0x6e, 0xe2,
  0xee, 0xd6, 0x1c, 0xa8, 0xda, 0x38, 0x3b, 0xf8, 0x15, 0x0a, 0x7f, 0x54, 0xeb, 0x38, 0x09, 0x8e,
  0xdc, 0xc1, 0x21, 0x32, 0x81, 0x1b, 0xe9, 0x06, 0x1c, 0x47, 0xe1, 0xc2, 0xe1, 0x41, 0xca, 0x8a,
  0x2a, 0xeb, 0x28, 0x18, 0xee, 0x14, 0x2b, 0x02, 0xf4, 0xd4, 0xec, 0xfe, 0x76, 0x12, 0xb5, 0x29,
  0xed, 0xd9, 0x3c, 0x4e, 0xe2, 0x29, 0xd4, 0x25, 0xea, 0xd8, 0xd7, 0xaf, 0x01, 0x16, 0x27, 0xe1,
  0x0b, 0xc7, 0x38, 0x69, 0x81, 0x42, 0xfc, 0xfd, 0xef, 0xe7, 0xf6, 0xaa, 0x1b, 0xc4, 0x19, 0xf3,
  0x30, 0xf6, 0x15, 0xd0, 0x14, 0x6d, 0xe2, 0xc4, 0xfc, 0xca, 0xf6, 0x9b, 0xd3, 0xe3, 0x10, 0x23,
  0xd3, 0x4e, 0x25, 0x28, 0x81, 0x2d, 0x01, 0xe6, 0xfa, 0xf9, 0xd7, 0xe4, 0x71, 0x58, 0x18, 0x61,
  0xfc, 0x0c, 0x37, 0x16, 0xe1, 0x05, 0xc8, 0x0b, 0x58, 0xb9, 0xc4, 0xd2, 0x9e, 0xf7, 0xd7, 0xfb,
  0xb5, 0x97, 0x18, 0x0a, 0x42, 0xd8, 0xe7, 0x81, 0xe0, 0xda, 0xe8, 0x0e, 0xff, 0x47, 0xc4, 0xee,
  0x62, 0xfe, 0xff, 0xff, 0x04, 0x00, 0x00, 0x00, 0x80, 0x00, 0x00, 0x00, 0xb4, 0xfc, 0xff, 0xff,
  0x3d, 0x03, 0x00, 0x00, 0xbe, 0x0f, 0x00, 0x00, 0x5b, 0x0f, 0x00, 0x00, 0x2f, 0xfb, 0xff, 0xff,
  0x09, 0xf5, 0xff, 0xff, 0x5f, 0x02, 0x00, 0x00, 0x60, 0x06, 0x00, 0x00, 0x63, 0x07, 0x00, 0x00,
  0x17, 0xfb, 0xff, 0xff, 0xa3, 0x09, 0x00, 0x00, 0x17, 0x00, 0x00, 0x00, 0x76, 0xfc, 0xff, 0xff,
  0x13, 0xfe, 0xff, 0xff, 0xf4, 0x07, 0x00, 0x00, 0xf5, 0xfe, 0xff, 0xff, 0xf3, 0x00, 0x00, 0x00,
  0xa6, 0x06, 0x00, 0x00, 0x51, 0x01, 0x00, 0x00, 0x04, 0x07, 0x00, 0x00, 0xe5, 0x02, 0x00, 0x00,
  0xb4, 0xfe, 0xff, 0xff, 0x72, 0x00, 0x00, 0x00, 0xd5, 0x01, 0x00, 0x00, 0xf9, 0xfc, 0xff, 0xff,
  0xf5, 0xfe, 0xff, 0xff, 0x21, 0x06, 0x00, 0x00, 0x6f, 0xfd, 0xff, 0xff, 0x29, 0x01, 0x00, 0x00,
  0x9d, 0x03, 0x00, 0x00, 0xf7, 0xfe, 0xff, 0xff, 0xec, 0x08, 0x00, 0x00, 0xee, 0xfe, 0xff, 0xff,
  0x04, 0x00, 0x00, 0x00, 0x40, 0x00, 0x00, 0x00, 0x60, 0x9e, 0x37, 0x54, 0xce, 0x97, 0x4a, 0x29,
  0x69, 0xbb, 0xf9, 0xfa, 0xf5, 0x90, 0x4a, 0x1f, 0xde, 0x41, 0x81, 0x5c, 0x95, 0xf0, 0x04, 0x10,
  0xc4, 0x8f, 0x9e, 0x9c, 0x2f, 0x4b, 0x11, 0xfd, 0xbd, 0xff, 0xe4, 0xeb, 0x6a, 0x3c, 0xf2, 0xe9,
  0xa1, 0xf3, 0xca, 0x4d, 0x7f, 0xf5, 0xbb, 0xd3, 0x60, 0xd8, 0x5d, 0xf7, 0x7b, 0x41, 0x40, 0xbd,
  0x4e, 0x69, 0x33, 0xf4, 0xbd, 0xd8, 0xbc, 0xb3, 0x3a, 0xff, 0xff, 0xff, 0x04, 0x00, 0x00, 0x00,
  0x08, 0x00, 0x00, 0x00, 0x54, 0x00, 0x00, 0x00, 0xac, 0xff, 0xff, 0xff, 0x4e, 0xff, 0xff, 0xff,
  0x04, 0x00, 0x00, 0x00, 0x08, 0x00, 0x00, 0x00, 0x01, 0x00, 0x00, 0x00, 0x02, 0x00, 0x00, 0x00,
  0x94, 0xda, 0xff, 0xff, 0x98, 0xda, 0xff, 0xff, 0x0f, 0x00, 0x00, 0x00, 0x4d, 0x4c, 0x49, 0x52,
  0x20, 0x43, 0x6f, 0x6e, 0x76, 0x65, 0x72, 0x74, 0x65, 0x64, 0x2e, 0x00, 0x01, 0x00, 0x00, 0x00,
  0x14, 0x00, 0x00, 0x00, 0x00, 0x00, 0x0e, 0x00, 0x18, 0x00, 0x14, 0x00, 0x10, 0x00, 0x0c, 0x00,
  0x08, 0x00, 0x04, 0x00, 0x0e, 0x00, 0x00, 0x00, 0x14, 0x00, 0x00, 0x00, 0x1c, 0x00, 0x00, 0x00,
  0xd8, 0x02, 0x00, 0x00, 0xdc, 0x02, 0x00, 0x00, 0xe0, 0x02, 0x00, 0x00, 0x04, 0x00, 0x00, 0x00,
  0x6d, 0x61, 0x69, 0x6e, 0x00, 0x00, 0x00, 0x00, 0x0a, 0x00, 0x00, 0x00, 0x74, 0x02, 0x00, 0x00,
  0x0c, 0x02, 0x00, 0x00, 0xbc, 0x01, 0x00, 0x00, 0x74, 0x01, 0x00, 0x00, 0x34, 0x01, 0x00, 0x00,
  0xec, 0x00, 0x00, 0x00, 0xac, 0x00, 0x00, 0x00, 0x78, 0x00, 0x00, 0x00, 0x40, 0x00, 0x00, 0x00,
  0x04, 0x00, 0x00, 0x00, 0x26, 0xfe, 0xff, 0xff, 0x1c, 0x00, 0x00, 0x00, 0x00, 0x00, 0x00, 0x09,
  0x1c, 0x00, 0x00, 0x00, 0x20, 0x00, 0x00, 0x00, 0x04, 0x00, 0x00, 0x00, 0x00, 0x00, 0x06, 0x00,
  0x08, 0x00, 0x04, 0x00, 0x06, 0x00, 0x00, 0x00, 0x00, 0x00, 0x80, 0x3f, 0x01, 0x00, 0x00, 0x00,
  0x1b, 0x00, 0x00, 0x00, 0x01, 0x00, 0x00, 0x00, 0x1a, 0x00, 0x00, 0x00, 0x5e, 0xfe, 0xff, 0xff,
  0x14, 0x00, 0x00, 0x00, 0x00, 0x00, 0x00, 0x08, 0x10, 0x00, 0x00, 0x00, 0x14, 0x00, 0x00, 0x00,
  0x03, 0x00, 0x00, 0x00, 0x68, 0xdb, 0xff, 0xff, 0x01, 0x00, 0x00, 0x00, 0x1a, 0x00, 0x00, 0x00,
  0x03, 0x00, 0x00, 0x00, 0x19, 0x00, 0x00, 0x00, 0x03, 0x00, 0x00, 0x00, 0x02, 0x00, 0x00, 0x00,
  0x92, 0xfe, 0xff, 0xff, 0x14, 0x00, 0x00, 0x00, 0x00, 0x00, 0x00, 0x1b, 0x10, 0x00, 0x00, 0x00,
  0x14, 0x00, 0x00, 0x00, 0x02, 0x00, 0x00, 0x00, 0x9c, 0xdb, 0xff, 0xff, 0x01, 0x00, 0x00, 0x00,
  0x19, 0x00, 0x00, 0x00, 0x02, 0x00, 0x00, 0x00, 0x18, 0x00, 0x00, 0x00, 0x01, 0x00, 0x00, 0x00,
  0x5e, 0xfe, 0xff, 0xff, 0x10, 0x00, 0x00, 0x00, 0x00, 0x00, 0x00, 0x01, 0x18, 0x00, 0x00, 0x00,
  0x1c, 0x00, 0x00, 0x00, 0x50, 0xfe, 0xff, 0xff, 0x00, 0x00, 0x00, 0x01, 0x01, 0x00, 0x00, 0x00,
  0x01, 0x00, 0x00, 0x00, 0x01, 0x00, 0x00, 0x00, 0x18, 0x00, 0x00, 0x00, 0x03, 0x00, 0x00, 0x00,
  0x17, 0x00, 0x00, 0x00, 0x05, 0x00, 0x00, 0x00, 0x04, 0x00, 0x00, 0x00, 0xfe, 0xfe, 0xff, 0xff,
  0x14, 0x00, 0x00, 0x00, 0x00, 0x00, 0x00, 0x02, 0x20, 0x00, 0x00, 0x00, 0x24, 0x00, 0x00, 0x00,
  0x01, 0x00, 0x00, 0x00, 0xee, 0xfe, 0xff, 0xff, 0x00, 0x00, 0x00, 0x01, 0x01, 0x00, 0x00, 0x00,
  0x01, 0x00, 0x00, 0x00, 0x01, 0x00, 0x00, 0x00, 0x01, 0x00, 0x00, 0x00, 0x17, 0x00, 0x00, 0x00,
  0x03, 0x00, 0x00, 0x00, 0x16, 0x00, 0x00, 0x00, 0x07, 0x00, 0x00, 0x00, 0x06, 0x00, 0x00, 0x00,
  0xde, 0xfe, 0xff, 0xff, 0x10, 0x00, 0x00, 0x00, 0x00, 0x00, 0x00, 0x01, 0x18, 0x00, 0x00, 0x00,
  0x1c, 0x00, 0x00, 0x00, 0xd0, 0xfe, 0xff, 0xff, 0x00, 0x00, 0x00, 0x01, 0x01, 0x00, 0x00, 0x00,
  0x01, 0x00, 0x00, 0x00, 0x01, 0x00, 0x00, 0x00, 0x16, 0x00, 0x00, 0x00, 0x03, 0x00, 0x00, 0x00,
  0x15, 0x00, 0x00, 0x00, 0x09, 0x00, 0x00, 0x00, 0x08, 0x00, 0x00, 0x00, 0x7e, 0xff, 0xff, 0xff,
  0x14, 0x00, 0x00, 0x00, 0x00, 0x00, 0x00, 0x02, 0x20, 0x00, 0x00, 0x00, 0x24, 0x00, 0x00, 0x00,
  0x01, 0x00, 0x00, 0x00, 0x6e, 0xff, 0xff, 0xff, 0x00, 0x00, 0x00, 0x01, 0x01, 0x00, 0x00, 0x00,
  0x02, 0x00, 0x00, 0x00, 0x02, 0x00, 0x00, 0x00, 0x01, 0x00, 0x00, 0x00, 0x15, 0x00, 0x00, 0x00,
  0x03, 0x00, 0x00, 0x00, 0x14, 0x00, 0x00, 0x00, 0x0b, 0x00, 0x00, 0x00, 0x0a, 0x00, 0x00, 0x00,
  0x5e, 0xff, 0xff, 0xff, 0x10, 0x00, 0x00, 0x00, 0x00, 0x00, 0x00, 0x01, 0x18, 0x00, 0x00, 0x00,
  0x1c, 0x00, 0x00, 0x00, 0x50, 0xff, 0xff, 0xff, 0x00, 0x00, 0x00, 0x01, 0x01, 0x00, 0x00, 0x00,
  0x01, 0x00, 0x00, 0x00, 0x01, 0x00, 0x00, 0x00, 0x14, 0x00, 0x00, 0x00, 0x03, 0x00, 0x00, 0x00,
  0x13, 0x00, 0x00, 0x00, 0x0d, 0x00, 0x00, 0x00, 0x0c, 0x00, 0x00, 0x00, 0x00, 0x00, 0x0e, 0x00,
  0x1a, 0x00, 0x14, 0x00, 0x10, 0x00, 0x0c, 0x00, 0x0b, 0x00, 0x04, 0x00, 0x0e, 0x00, 0x00, 0x00,
  0x24, 0x00, 0x00, 0x00, 0x00, 0x00, 0x00, 0x02, 0x30, 0x00, 0x00, 0x00, 0x34, 0x00, 0x00, 0x00,
  0x01, 0x00, 0x00, 0x00, 0x00, 0x00, 0x0e, 0x00, 0x14, 0x00, 0x00, 0x00, 0x10, 0x00, 0x0c, 0x00,
  0x08, 0x00, 0x07, 0x00, 0x0e, 0x00, 0x00, 0x00, 0x00, 0x00, 0x00, 0x01, 0x01, 0x00, 0x00, 0x00,
  0x01, 0x00, 0x00, 0x00, 0x01, 0x00, 0x00, 0x00, 0x01, 0x00, 0x00, 0x00, 0x13, 0x00, 0x00, 0x00,
  0x03, 0x00, 0x00, 0x00, 0x12, 0x00, 0x00, 0x00, 0x0f, 0x00, 0x00, 0x00, 0x0e, 0x00, 0x00, 0x00,
  0x00, 0x00, 0x0e, 0x00, 0x14, 0x00, 0x00, 0x00, 0x10, 0x00, 0x0c, 0x00, 0x0b, 0x00, 0x04, 0x00,
  0x0e, 0x00, 0x00, 0x00, 0x1c, 0x00, 0x00, 0x00, 0x00, 0x00, 0x00, 0x01, 0x24, 0x00, 0x00, 0x00,
  0x28, 0x00, 0x00, 0x00, 0x0c, 0x00, 0x10, 0x00, 0x00, 0x00, 0x0c, 0x00, 0x08, 0x00, 0x07, 0x00,
  0x0c, 0x00, 0x00, 0x00, 0x00, 0x00, 0x00, 0x01, 0x02, 0x00, 0x00, 0x00, 0x02, 0x00, 0x00, 0x00,
  0x01, 0x00, 0x00, 0x00, 0x12, 0x00, 0x00, 0x00, 0x03, 0x00, 0x00, 0x00, 0x00, 0x00, 0x00, 0x00,
  0x11, 0x00, 0x00, 0x00, 0x10, 0x00, 0x00, 0x00, 0x01, 0x00, 0x00, 0x00, 0x1b, 0x00, 0x00, 0x00,
  0x01, 0x00, 0x00, 0x00, 0x00, 0x00, 0x00, 0x00, 0x1c, 0x00, 0x00, 0x00, 0x7c, 0x22, 0x00, 0x00,
  0x20, 0x22, 0x00, 0x00, 0x98, 0x21, 0x00, 0x00, 0x24, 0x21, 0x00, 0x00, 0x50, 0x1f, 0x00, 0x00,
  0x6c, 0x1d, 0x00, 0x00, 0x98, 0x1b, 0x00, 0x00, 0x9c, 0x19, 0x00, 0x00, 0xc8, 0x17, 0x00, 0x00,
  0xe4, 0x15, 0x00, 0x00, 0xd0, 0x14, 0x00, 0x00, 0xa8, 0x13, 0x00, 0x00, 0x90, 0x12, 0x00, 0x00,
  0x6c, 0x11, 0x00, 0x00, 0xb8, 0x10, 0x00, 0x00, 0xf0, 0x0f, 0x00, 0x00, 0x38, 0x0f, 0x00, 0x00,
  0x74, 0x0e, 0x00, 0x00, 0xb8, 0x0c, 0x00, 0x00, 0xdc, 0x0a, 0x00, 0x00, 0x10, 0x09, 0x00, 0x00,
  0x2c, 0x07, 0x00, 0x00, 0x60, 0x05, 0x00, 0x00, 0x7c, 0x03, 0x00, 0x00, 0xb0, 0x01, 0x00, 0x00,
  0x1c, 0x01, 0x00, 0x00, 0x80, 0x00, 0x00, 0x00, 0x04, 0x00, 0x00, 0x00, 0x0a, 0xde, 0xff, 0xff,
  0x00, 0x00, 0x00, 0x01, 0x18, 0x00, 0x00, 0x00, 0x20, 0x00, 0x00, 0x00, 0x3c, 0x00, 0x00, 0x00,
  0x1c, 0x00, 0x00, 0x00, 0x00, 0x00, 0x00, 0x09, 0x50, 0x00, 0x00, 0x00, 0x02, 0x00, 0x00, 0x00,
  0xff, 0xff, 0xff, 0xff, 0x02, 0x00, 0x00, 0x00, 0xec, 0xdd, 0xff, 0xff, 0x08, 0x00, 0x00, 0x00,
  0x10, 0x00, 0x00, 0x00, 0x01, 0x00, 0x00, 0x00, 0x80, 0xff, 0xff, 0xff, 0xff, 0xff, 0xff, 0xff,
  0x01, 0x00, 0x00, 0x00, 0x00, 0x00, 0x80, 0x3b, 0x1b, 0x00, 0x00, 0x00, 0x53, 0x74, 0x61, 0x74,
  0x65, 0x66, 0x75, 0x6c, 0x50, 0x61, 0x72, 0x74, 0x69, 0x74, 0x69, 0x6f, 0x6e, 0x65, 0x64, 0x43,
  0x61, 0x6c, 0x6c, 0x5f, 0x31, 0x3a, 0x30, 0x00, 0x02, 0x00, 0x00, 0x00, 0x01, 0x00, 0x00, 0x00,
  0x02, 0x00, 0x00, 0x00, 0x82, 0xde, 0xff, 0xff, 0x00, 0x00, 0x00, 0x01, 0x18, 0x00, 0x00, 0x00,
  0x20, 0x00, 0x00, 0x00, 0x3c, 0x00, 0x00, 0x00, 0x1b, 0x00, 0x00, 0x00, 0x00, 0x00, 0x00, 0x09,
  0x70, 0x00, 0x00, 0x00, 0x02, 0x00, 0x00, 0x00, 0xff, 0xff, 0xff, 0xff, 0x02, 0x00, 0x00, 0x00,
  0x64, 0xde, 0xff, 0xff, 0x08, 0x00, 0x00, 0x00, 0x10, 0x00, 0x00, 0x00, 0x01, 0x00, 0x00, 0x00,
  0x06, 0x00, 0x00, 0x00, 0x00, 0x00, 0x00, 0x00, 0x01, 0x00, 0x00, 0x00, 0x29, 0x71, 0x30, 0x3e,
  0x38, 0x00, 0x00, 0x00, 0x66, 0x75, 0x6e, 0x63, 0x74, 0x69, 0x6f, 0x6e, 0x61, 0x6c, 0x5f, 0x31,
  0x2f, 0x64, 0x65, 0x6e, 0x73, 0x65, 0x5f, 0x31, 0x2f, 0x4d, 0x61, 0x74, 0x4d, 0x75, 0x6c, 0x3b,
  0x66, 0x75, 0x6e, 0x63, 0x74, 0x69, 0x6f, 0x6e, 0x61, 0x6c, 0x5f, 0x31, 0x2f, 0x64, 0x65, 0x6e,
  0x73, 0x65, 0x5f, 0x31, 0x2f, 0x42, 0x69, 0x61, 0x73, 0x41, 0x64, 0x64, 0x00, 0x00, 0x00, 0x00,
  0x02, 0x00, 0x00, 0x00, 0x01, 0x00, 0x00, 0x00, 0x02, 0x00, 0x00, 0x00, 0x1a, 0xdf, 0xff, 0xff,
  0x00, 0x00, 0x00, 0x01, 0x18, 0x00, 0x00, 0x00, 0x20, 0x00, 0x00, 0x00, 0x40, 0x00, 0x00, 0x00,
  0x1a, 0x00, 0x00, 0x00, 0x00, 0x00, 0x00, 0x09, 0x68, 0x00, 0x00, 0x00, 0x02, 0x00, 0x00, 0x00,
  0xff, 0xff, 0xff, 0xff, 0x20, 0x00, 0x00, 0x00, 0xfc, 0xde, 0xff, 0xff, 0x08, 0x00, 0x00, 0x00,
  0x14, 0x00, 0x00, 0x00, 0x01, 0x00, 0x00, 0x00, 0x80, 0xff, 0xff, 0xff, 0xff, 0xff, 0xff, 0xff,
  0x00, 0x00, 0x00, 0x00, 0x01, 0x00, 0x00, 0x00, 0xfc, 0x67, 0x06, 0x3d, 0x2c, 0x00, 0x00, 0x00,
  0x66, 0x75, 0x6e, 0x63, 0x74, 0x69, 0x6f, 0x6e, 0x61, 0x6c, 0x5f, 0x31, 0x2f, 0x67, 0x6c, 0x6f,
  0x62, 0x61, 0x6c, 0x5f, 0x61, 0x76, 0x65, 0x72, 0x61, 0x67, 0x65, 0x5f, 0x70, 0x6f, 0x6f, 0x6c,
  0x69, 0x6e, 0x67, 0x32, 0x64, 0x5f, 0x31, 0x2f, 0x4d, 0x65, 0x61, 0x6e, 0x00, 0x00, 0x00, 0x00,
  0x02, 0x00, 0x00, 0x00, 0x01, 0x00, 0x00, 0x00, 0x20, 0x00, 0x00, 0x00, 0xaa, 0xdf, 0xff, 0xff,
  0x00, 0x00, 0x00, 0x01, 0x18, 0x00, 0x00, 0x00, 0x28, 0x00, 0x00, 0x00, 0x48, 0x00, 0x00, 0x00,
  0x19, 0x00, 0x00, 0x00, 0x00, 0x00, 0x00, 0x09, 0x98, 0x01, 0x00, 0x00, 0x04, 0x00, 0x00, 0x00,
  0xff, 0xff, 0xff, 0xff, 0x10, 0x00, 0x00, 0x00, 0x10, 0x00, 0x00, 0x00, 0x20, 0x00, 0x00, 0x00,
  0x94, 0xdf, 0xff, 0xff, 0x08, 0x00, 0x00, 0x00, 0x14, 0x00, 0x00, 0x00, 0x01, 0x00, 0x00, 0x00,
  0x80, 0xff, 0xff, 0xff, 0xff, 0xff, 0xff, 0xff, 0x00, 0x00, 0x00, 0x00, 0x01, 0x00, 0x00, 0x00,
  0xe3, 0x37, 0xcd, 0x3d, 0x54, 0x01, 0x00, 0x00, 0x66, 0x75, 0x6e, 0x63, 0x74, 0x69, 0x6f, 0x6e,
  0x61, 0x6c, 0x5f, 0x31, 0x2f, 0x61, 0x63, 0x74, 0x69, 0x76, 0x61, 0x74, 0x69, 0x6f, 0x6e, 0x5f,
  0x36, 0x5f, 0x31, 0x2f, 0x52, 0x65, 0x6c, 0x75, 0x3b, 0x66, 0x75, 0x6e, 0x63, 0x74, 0x69, 0x6f,
  0x6e, 0x61, 0x6c, 0x5f, 0x31, 0x2f, 0x62, 0x61, 0x74, 0x63, 0x68, 0x5f, 0x6e, 0x6f, 0x72, 0x6d,
  0x61, 0x6c, 0x69, 0x7a, 0x61, 0x74, 0x69, 0x6f, 0x6e, 0x5f, 0x36, 0x5f, 0x31, 0x2f, 0x62, 0x61,
  0x74, 0x63, 0x68, 0x6e, 0x6f, 0x72, 0x6d, 0x2f, 0x61, 0x64, 0x64, 0x5f, 0x31, 0x3b, 0x66, 0x75,
  0x6e, 0x63, 0x74, 0x69, 0x6f, 0x6e, 0x61, 0x6c, 0x5f, 0x31, 0x2f, 0x62, 0x61, 0x74, 0x63, 0x68,
  0x5f, 0x6e, 0x6f, 0x72, 0x6d, 0x61, 0x6c, 0x69, 0x7a, 0x61, 0x74, 0x69, 0x6f, 0x6e, 0x5f, 0x36,
  0x5f, 0x31, 0x2f, 0x62, 0x61, 0x74, 0x63, 0x68, 0x6e, 0x6f, 0x72, 0x6d, 0x2f, 0x6d, 0x75, 0x6c,
  0x5f, 0x31, 0x3b, 0x66, 0x75, 0x6e, 0x63, 0x74, 0x69, 0x6f, 0x6e, 0x61, 0x6c, 0x5f, 0x31, 0x2f,
  0x63, 0x6f, 0x6e, 0x76, 0x32, 0x64, 0x5f, 0x33, 0x5f, 0x31, 0x2f, 0x53, 0x71, 0x75, 0x65, 0x65,
  0x7a, 0x65, 0x3b, 0x66, 0x75, 0x6e, 0x63, 0x74, 0x69, 0x6f, 0x6e, 0x61, 0x6c, 0x5f, 0x31, 0x2f,
  0x63, 0x6f, 0x6e, 0x76, 0x32, 0x64, 0x5f, 0x33, 0x5f, 0x31, 0x2f, 0x42, 0x69, 0x61, 0x73, 0x41,
  0x64, 0x64, 0x3b, 0x66, 0x75, 0x6e, 0x63, 0x74, 0x69, 0x6f, 0x6e, 0x61, 0x6c, 0x5f, 0x31, 0x2f,
  0x62, 0x61, 0x74, 0x63, 0x68, 0x5f, 0x6e, 0x6f, 0x72, 0x6d, 0x61, 0x6c, 0x69, 0x7a, 0x61, 0x74,
  0x69, 0x6f, 0x6e, 0x5f, 0x36, 0x5f, 0x31, 0x2f, 0x62, 0x61, 0x74, 0x63, 0x68, 0x6e, 0x6f, 0x72,
  0x6d, 0x2f, 0x6d, 0x75, 0x6c, 0x3b, 0x66, 0x75, 0x6e, 0x63, 0x74, 0x69, 0x6f, 0x6e, 0x61, 0x6c,
  0x5f, 0x31, 0x2f, 0x63, 0x6f, 0x6e, 0x76, 0x32, 0x64, 0x5f, 0x33, 0x5f, 0x31, 0x2f, 0x63, 0x6f,
  0x6e, 0x76, 0x6f, 0x6c, 0x75, 0x74, 0x69, 0x6f, 0x6e, 0x3b, 0x66, 0x75, 0x6e, 0x63, 0x74, 0x69,
  0x6f, 0x6e, 0x61, 0x6c, 0x5f, 0x31, 0x2f, 0x62, 0x61, 0x74, 0x63, 0x68, 0x5f, 0x6e, 0x6f, 0x72,
  0x6d, 0x61, 0x6c, 0x69, 0x7a, 0x61, 0x74, 0x69, 0x6f, 0x6e, 0x5f, 0x36, 0x5f, 0x31, 0x2f, 0x62,
  0x61, 0x74, 0x63, 0x68, 0x6e, 0x6f, 0x72, 0x6d, 0x2f, 0x73, 0x75, 0x62, 0x00, 0x00, 0x00, 0x00,
  0x04, 0x00, 0x00, 0x00, 0x01, 0x00, 0x00, 0x00, 0x10, 0x00, 0x00, 0x00, 0x10, 0x00, 0x00, 0x00,
  0x20, 0x00, 0x00, 0x00, 0x72, 0xe1, 0xff, 0xff, 0x00, 0x00, 0x00, 0x01, 0x18, 0x00, 0x00, 0x00,
  0x28, 0x00, 0x00, 0x00, 0x44, 0x00, 0x00, 0x00, 0x18, 0x00, 0x00, 0x00, 0x00, 0x00, 0x00, 0x09,
  0xb0, 0x01, 0x00, 0x00, 0x04, 0x00, 0x00, 0x00, 0xff, 0xff, 0xff, 0xff, 0x10, 0x00, 0x00, 0x00,
  0x10, 0x00, 0x00, 0x00, 0x20, 0x00, 0x00, 0x00, 0x5c, 0xe1, 0xff, 0xff, 0x08, 0x00, 0x00, 0x00,
  0x10, 0x00, 0x00, 0x00, 0x01, 0x00, 0x00, 0x00, 0x80, 0xff, 0xff, 0xff, 0xff, 0xff, 0xff, 0xff,
  0x01, 0x00, 0x00, 0x00, 0x1b, 0x8f, 0xc7, 0x3d, 0x70, 0x01, 0x00, 0x00, 0x66, 0x75, 0x6e, 0x63,
  0x74, 0x69, 0x6f, 0x6e, 0x61, 0x6c, 0x5f, 0x31, 0x2f, 0x61, 0x63, 0x74, 0x69, 0x76, 0x61, 0x74,
  0x69, 0x6f, 0x6e, 0x5f, 0x35, 0x5f, 0x31, 0x2f, 0x52, 0x65, 0x6c, 0x75, 0x3b, 0x66, 0x75, 0x6e,
  0x63, 0x74, 0x69, 0x6f, 0x6e, 0x61, 0x6c, 0x5f, 0x31, 0x2f, 0x62, 0x61, 0x74, 0x63, 0x68, 0x5f,
  0x6e, 0x6f, 0x72, 0x6d, 0x61, 0x6c, 0x69, 0x7a, 0x61, 0x74, 0x69, 0x6f, 0x6e, 0x5f, 0x35, 0x5f,
  0x31, 0x2f, 0x62, 0x61, 0x74, 0x63, 0x68, 0x6e, 0x6f, 0x72, 0x6d, 0x2f, 0x61, 0x64, 0x64, 0x5f,
  0x31, 0x3b, 0x66, 0x75, 0x6e, 0x63, 0x74, 0x69, 0x6f, 0x6e, 0x61, 0x6c, 0x5f, 0x31, 0x2f, 0x62,
  0x61, 0x74, 0x63, 0x68, 0x5f, 0x6e, 0x6f, 0x72, 0x6d, 0x61, 0x6c, 0x69, 0x7a, 0x61, 0x74, 0x69,
  0x6f, 0x6e, 0x5f, 0x35, 0x5f, 0x31, 0x2f, 0x62, 0x61, 0x74, 0x63, 0x68, 0x6e, 0x6f, 0x72, 0x6d,
  0x2f, 0x6d, 0x75, 0x6c, 0x5f, 0x31, 0x3b, 0x66, 0x75, 0x6e, 0x63, 0x74, 0x69, 0x6f, 0x6e, 0x61,
  0x6c, 0x5f, 0x31, 0x2f, 0x64, 0x65, 0x70, 0x74, 0x68, 0x77, 0x69, 0x73, 0x65, 0x5f, 0x63, 0x6f,
  0x6e, 0x76, 0x32, 0x64, 0x5f, 0x32, 0x5f, 0x31, 0x2f, 0x42, 0x69, 0x61, 0x73, 0x41, 0x64, 0x64,
  0x3b, 0x66, 0x75, 0x6e, 0x63, 0x74, 0x69, 0x6f, 0x6e, 0x61, 0x6c, 0x5f, 0x31, 0x2f, 0x64, 0x65,
  0x70, 0x74, 0x68, 0x77, 0x69, 0x73, 0x65, 0x5f, 0x63, 0x6f, 0x6e, 0x76, 0x32, 0x64, 0x5f, 0x32,
  0x5f, 0x31, 0x2f, 0x64, 0x65, 0x70, 0x74, 0x68, 0x77, 0x69, 0x73, 0x65, 0x3b, 0x66, 0x75, 0x6e,
  0x63, 0x74, 0x69, 0x6f, 0x6e, 0x61, 0x6c, 0x5f, 0x31, 0x2f, 0x64, 0x65, 0x70, 0x74, 0x68, 0x77,
  0x69, 0x73, 0x65, 0x5f, 0x63, 0x6f, 0x6e, 0x76, 0x32, 0x64, 0x5f, 0x32, 0x5f, 0x31, 0x2f, 0x53,
  0x71, 0x75, 0x65, 0x65, 0x7a, 0x65, 0x3b, 0x66, 0x75, 0x6e, 0x63, 0x74, 0x69, 0x6f, 0x6e, 0x61,
  0x6c, 0x5f, 0x31, 0x2f, 0x62, 0x61, 0x74, 0x63, 0x68, 0x5f, 0x6e, 0x6f, 0x72, 0x6d, 0x61, 0x6c,
  0x69, 0x7a, 0x61, 0x74, 0x69, 0x6f, 0x6e, 0x5f, 0x35, 0x5f, 0x31, 0x2f, 0x62, 0x61, 0x74, 0x63,
  0x68, 0x6e, 0x6f, 0x72, 0x6d, 0x2f, 0x6d, 0x75, 0x6c, 0x3b, 0x66, 0x75, 0x6e, 0x63, 0x74, 0x69,
  0x6f, 0x6e, 0x61, 0x6c, 0x5f, 0x31, 0x2f, 0x62, 0x61, 0x74, 0x63, 0x68, 0x5f, 0x6e, 0x6f, 0x72,
  0x6d, 0x61, 0x6c, 0x69, 0x7a, 0x61, 0x74, 0x69, 0x6f, 0x6e, 0x5f, 0x35, 0x5f, 0x31, 0x2f, 0x62,
  0x61, 0x74, 0x63, 0x68, 0x6e, 0x6f, 0x72, 0x6d, 0x2f, 0x73, 0x75, 0x62, 0x00, 0x00, 0x00, 0x00,
  0x04, 0x00, 0x00, 0x00, 0x01, 0x00, 0x00, 0x00, 0x10, 0x00, 0x00, 0x00, 0x10, 0x00, 0x00, 0x00,
  0x20, 0x00, 0x00, 0x00, 0x52, 0xe3, 0xff, 0xff, 0x00, 0x00, 0x00, 0x01, 0x18, 0x00, 0x00, 0x00,
  0x28, 0x00, 0x00, 0x00, 0x48, 0x00, 0x00, 0x00, 0x17, 0x00, 0x00, 0x00, 0x00, 0x00, 0x00, 0x09,
  0x98, 0x01, 0x00, 0x00, 0x04, 0x00, 0x00, 0x00, 0xff, 0xff, 0xff, 0xff, 0x10, 0x00, 0x00, 0x00,
  0x10, 0x00, 0x00, 0x00, 0x20, 0x00, 0x00, 0x00, 0x3c, 0xe3, 0xff, 0xff, 0x08, 0x00, 0x00, 0x00,
  0x14, 0x00, 0x00, 0x00, 0x01, 0x00, 0x00, 0x00, 0x80, 0xff, 0xff, 0xff, 0xff, 0xff, 0xff, 0xff,
  0x00, 0x00, 0x00, 0x00, 0x01, 0x00, 0x00, 0x00, 0xdf, 0x98, 0xc4, 0x3d, 0x54, 0x01, 0x00, 0x00,
  0x66, 0x75, 0x6e, 0x63, 0x74, 0x69, 0x6f, 0x6e, 0x61, 0x6c, 0x5f, 0x31, 0x2f, 0x61, 0x63, 0x74,
  0x69, 0x76, 0x61, 0x74, 0x69, 0x6f, 0x6e, 0x5f, 0x34, 0x5f, 0x31, 0x2f, 0x52, 0x65, 0x6c, 0x75,
  0x3b, 0x66, 0x75, 0x6e, 0x63, 0x74, 0x69, 0x6f, 0x6e, 0x61, 0x6c, 0x5f, 0x31, 0x2f, 0x62, 0x61,
  0x74, 0x63, 0x68, 0x5f, 0x6e, 0x6f, 0x72, 0x6d, 0x61, 0x6c, 0x69, 0x7a, 0x61, 0x74, 0x69, 0x6f,
  0x6e, 0x5f, 0x34, 0x5f, 0x31, 0x2f, 0x62, 0x61, 0x74, 0x63, 0x68, 0x6e, 0x6f, 0x72, 0x6d, 0x2f,
  0x61, 0x64, 0x64, 0x5f, 0x31, 0x3b, 0x66, 0x75, 0x6e, 0x63, 0x74, 0x69, 0x6f, 0x6e, 0x61, 0x6c,
  0x5f, 0x31, 0x2f, 0x62, 0x61, 0x74, 0x63, 0x68, 0x5f, 0x6e, 0x6f, 0x72, 0x6d, 0x61, 0x6c, 0x69,
  0x7a, 0x61, 0x74, 0x69, 0x6f, 0x6e, 0x5f, 0x34, 0x5f, 0x31, 0x2f, 0x62, 0x61, 0x74, 0x63, 0x68,
  0x6e, 0x6f, 0x72, 0x6d, 0x2f, 0x6d, 0x75, 0x6c, 0x5f, 0x31, 0x3b, 0x66, 0x75, 0x6e, 0x63, 0x74,
  0x69, 0x6f, 0x6e, 0x61, 0x6c, 0x5f, 0x31, 0x2f, 0x63, 0x6f, 0x6e, 0x76, 0x32, 0x64, 0x5f, 0x32,
  0x5f, 0x31, 0x2f, 0x53, 0x71, 0x75, 0x65, 0x65, 0x7a, 0x65, 0x3b, 0x66, 0x75, 0x6e, 0x63, 0x74,
  0x69, 0x6f, 0x6e, 0x61, 0x6c, 0x5f, 0x31, 0x2f, 0x63, 0x6f, 0x6e, 0x76, 0x32, 0x64, 0x5f, 0x32,
  0x5f, 0x31, 0x2f, 0x42, 0x69, 0x61, 0x73, 0x41, 0x64, 0x64, 0x3b, 0x66, 0x75, 0x6e, 0x63, 0x74,
  0x69, 0x6f, 0x6e, 0x61, 0x6c, 0x5f, 0x31, 0x2f, 0x62, 0x61, 0x74, 0x63, 0x68, 0x5f, 0x6e, 0x6f,
  0x72, 0x6d, 0x61, 0x6c, 0x69, 0x7a, 0x61, 0x74, 0x69, 0x6f, 0x6e, 0x5f, 0x34, 0x5f, 0x31, 0x2f,
  0x62, 0x61, 0x74, 0x63, 0x68, 0x6e, 0x6f, 0x72, 0x6d, 0x2f, 0x6d, 0x75, 0x6c, 0x3b, 0x66, 0x75,
  0x6e, 0x63, 0x74, 0x69, 0x6f, 0x6e, 0x61, 0x6c, 0x5f, 0x31, 0x2f, 0x63, 0x6f, 0x6e, 0x76, 0x32,
  0x64, 0x5f, 0x32, 0x5f, 0x31, 0x2f, 0x63, 0x6f, 0x6e, 0x76, 0x6f, 0x6c, 0x75, 0x74, 0x69, 0x6f,
  0x6e, 0x3b, 0x66, 0x75, 0x6e, 0x63, 0x74, 0x69, 0x6f, 0x6e, 0x61, 0x6c, 0x5f, 0x31, 0x2f, 0x62,
  0x61, 0x74, 0x63, 0x68, 0x5f, 0x6e, 0x6f, 0x72, 0x6d, 0x61, 0x6c, 0x69, 0x7a, 0x61, 0x74, 0x69,
  0x6f, 0x6e, 0x5f, 0x34, 0x5f, 0x31, 0x2f, 0x62, 0x61, 0x74, 0x63, 0x68, 0x6e, 0x6f, 0x72, 0x6d,
  0x2f, 0x73, 0x75, 0x62, 0x00, 0x00, 0x00, 0x00, 0x04, 0x00, 0x00, 0x00, 0x01, 0x00, 0x00, 0x00,
  0x10, 0x00, 0x00, 0x00, 0x10, 0x00, 0x00, 0x00, 0x20, 0x00, 0x00, 0x00, 0x1a, 0xe5, 0xff, 0xff,
  0x00, 0x00, 0x00, 0x01, 0x18, 0x00, 0x00, 0x00, 0x28, 0x00, 0x00, 0x00, 0x44, 0x00, 0x00, 0x00,
  0x16, 0x00, 0x00, 0x00, 0x00, 0x00, 0x00, 0x09, 0xb0, 0x01, 0x00, 0x00, 0x04, 0x00, 0x00, 0x00,
  0xff, 0xff, 0xff, 0xff, 0x10, 0x00, 0x00, 0x00, 0x10, 0x00, 0x00, 0x00, 0x10, 0x00, 0x00, 0x00,
  0x04, 0xe5, 0xff, 0xff, 0x08, 0x00, 0x00, 0x00, 0x10, 0x00, 0x00, 0x00, 0x01, 0x00, 0x00, 0x00,
  0x80, 0xff, 0xff, 0xff, 0xff, 0xff, 0xff, 0xff, 0x01, 0x00, 0x00, 0x00, 0x02, 0x7b, 0xc5, 0x3d,
  0x70, 0x01, 0x00, 0x00, 0x66, 0x75, 0x6e, 0x63, 0x74, 0x69, 0x6f, 0x6e, 0x61, 0x6c, 0x5f, 0x31,
  0x2f, 0x61, 0x63, 0x74, 0x69, 0x76, 0x61, 0x74, 0x69, 0x6f, 0x6e, 0x5f, 0x33, 0x5f, 0x31, 0x2f,
  0x52, 0x65, 0x6c, 0x75, 0x3b, 0x66, 0x75, 0x6e, 0x63, 0x74, 0x69, 0x6f, 0x6e, 0x61, 0x6c, 0x5f,
  0x31, 0x2f, 0x62, 0x61, 0x74, 0x63, 0x68, 0x5f, 0x6e, 0x6f, 0x72, 0x6d, 0x61, 0x6c, 0x69, 0x7a,
  0x61, 0x74, 0x69, 0x6f, 0x6e, 0x5f, 0x33, 0x5f, 0x31, 0x2f, 0x62, 0x61, 0x74, 0x63, 0x68, 0x6e,
  0x6f, 0x72, 0x6d, 0x2f, 0x61, 0x64, 0x64, 0x5f, 0x31, 0x3b, 0x66, 0x75, 0x6e, 0x63, 0x74, 0x69,
  0x6f, 0x6e, 0x61, 0x6c, 0x5f, 0x31, 0x2f, 0x62, 0x61, 0x74, 0x63, 0x68, 0x5f, 0x6e, 0x6f, 0x72,
  0x6d, 0x61, 0x6c, 0x69, 0x7a, 0x61, 0x74, 0x69, 0x6f, 0x6e, 0x5f, 0x33, 0x5f, 0x31, 0x2f, 0x62,
  0x61, 0x74, 0x63, 0x68, 0x6e, 0x6f, 0x72, 0x6d, 0x2f, 0x6d, 0x75, 0x6c, 0x5f, 0x31, 0x3b, 0x66,
  0x75, 0x6e, 0x63, 0x74, 0x69, 0x6f, 0x6e, 0x61, 0x6c, 0x5f, 0x31, 0x2f, 0x64, 0x65, 0x70, 0x74,
  0x68, 0x77, 0x69, 0x73, 0x65, 0x5f, 0x63, 0x6f, 0x6e, 0x76, 0x32, 0x64, 0x5f, 0x31, 0x5f, 0x32,
  0x2f, 0x42, 0x69, 0x61, 0x73, 0x41, 0x64, 0x64, 0x3b, 0x66, 0x75, 0x6e, 0x63, 0x74, 0x69, 0x6f,
  0x6e, 0x61, 0x6c, 0x5f, 0x31, 0x2f, 0x64, 0x65, 0x70, 0x74, 0x68, 0x77, 0x69, 0x73, 0x65, 0x5f,
  0x63, 0x6f, 0x6e, 0x76, 0x32, 0x64, 0x5f, 0x31, 0x5f, 0x32, 0x2f, 0x64, 0x65, 0x70, 0x74, 0x68,
  0x77, 0x69, 0x73, 0x65, 0x3b, 0x66, 0x75, 0x6e, 0x63, 0x74, 0x69, 0x6f, 0x6e, 0x61, 0x6c, 0x5f,
  0x31, 0x2f, 0x64, 0x65, 0x70, 0x74, 0x68, 0x77, 0x69, 0x73, 0x65, 0x5f, 0x63, 0x6f, 0x6e, 0x76,
  0x32, 0x64, 0x5f, 0x31, 0x5f, 0x32, 0x2f, 0x53, 0x71, 0x75, 0x65, 0x65, 0x7a, 0x65, 0x3b, 0x66,
  0x75, 0x6e, 0x63, 0x74, 0x69, 0x6f, 0x6e, 0x61, 0x6c, 0x5f, 0x31, 0x2f, 0x62, 0x61, 0x74, 0x63,
  0x68, 0x5f, 0x6e, 0x6f, 0x72, 0x6d, 0x61, 0x6c, 0x69, 0x7a, 0x61, 0x74, 0x69, 0x6f, 0x6e, 0x5f,
  0x33, 0x5f, 0x31, 0x2f, 0x62, 0x61, 0x74, 0x63, 0x68, 0x6e, 0x6f, 0x72, 0x6d, 0x2f, 0x6d, 0x75,
  0x6c, 0x3b, 0x66, 0x75, 0x6e, 0x63, 0x74, 0x69, 0x6f, 0x6e, 0x61, 0x6c, 0x5f, 0x31, 0x2f, 0x62,
  0x61, 0x74, 0x63, 0x68, 0x5f, 0x6e, 0x6f, 0x72, 0x6d, 0x61, 0x6c, 0x69, 0x7a, 0x61, 0x74, 0x69,
  0x6f, 0x6e, 0x5f, 0x33, 0x5f, 0x31, 0x2f, 0x62, 0x61, 0x74, 0x63, 0x68, 0x6e, 0x6f, 0x72, 0x6d,
  0x2f, 0x73, 0x75, 0x62, 0x00, 0x00, 0x00, 0x00, 0x04, 0x00, 0x00, 0x00, 0x01, 0x00, 0x00, 0x00,
  0x10, 0x00, 0x00, 0x00, 0x10, 0x00, 0x00, 0x00, 0x10, 0x00, 0x00, 0x00, 0xfa, 0xe6, 0xff, 0xff,
  0x00, 0x00, 0x00, 0x01, 0x18, 0x00, 0x00, 0x00, 0x28, 0x00, 0x00, 0x00, 0x48, 0x00, 0x00, 0x00,
  0x15, 0x00, 0x00, 0x00, 0x00, 0x00, 0x00, 0x09, 0x98, 0x01, 0x00, 0x00, 0x04, 0x00, 0x00, 0x00,
  0xff, 0xff, 0xff, 0xff, 0x20, 0x00, 0x00, 0x00, 0x20, 0x00, 0x00, 0x00, 0x10, 0x00, 0x00, 0x00,
  0xe4, 0xe6, 0xff, 0xff, 0x08, 0x00, 0x00, 0x00, 0x14, 0x00, 0x00, 0x00, 0x01, 0x00, 0x00, 0x00,
  0x80, 0xff, 0xff, 0xff, 0xff, 0xff, 0xff, 0xff, 0x00, 0x00, 0x00, 0x00, 0x01, 0x00, 0x00, 0x00,
  0x00, 0xfc, 0x07, 0x3e, 0x54, 0x01, 0x00, 0x00, 0x66, 0x75, 0x6e, 0x63, 0x74, 0x69, 0x6f, 0x6e,
  0x61, 0x6c, 0x5f, 0x31, 0x2f, 0x61, 0x63, 0x74, 0x69, 0x76, 0x61, 0x74, 0x69, 0x6f, 0x6e, 0x5f,
  0x32, 0x5f, 0x31, 0x2f, 0x52, 0x65, 0x6c, 0x75, 0x3b, 0x66, 0x75, 0x6e, 0x63, 0x74, 0x69, 0x6f,
  0x6e, 0x61, 0x6c, 0x5f, 0x31, 0x2f, 0x62, 0x61, 0x74, 0x63, 0x68, 0x5f, 0x6e, 0x6f, 0x72, 0x6d,
  0x61, 0x6c, 0x69, 0x7a, 0x61, 0x74, 0x69, 0x6f, 0x6e, 0x5f, 0x32, 0x5f, 0x31, 0x2f, 0x62, 0x61,
  0x74, 0x63, 0x68, 0x6e, 0x6f, 0x72, 0x6d, 0x2f, 0x61, 0x64, 0x64, 0x5f, 0x31, 0x3b, 0x66, 0x75,
  0x6e, 0x63, 0x74, 0x69, 0x6f, 0x6e, 0x61, 0x6c, 0x5f, 0x31, 0x2f, 0x62, 0x61, 0x74, 0x63, 0x68,
  0x5f, 0x6e, 0x6f, 0x72, 0x6d, 0x61, 0x6c, 0x69, 0x7a, 0x61, 0x74, 0x69, 0x6f, 0x6e, 0x5f, 0x32,
  0x5f, 0x31, 0x2f, 0x62, 0x61, 0x74, 0x63, 0x68, 0x6e, 0x6f, 0x72, 0x6d, 0x2f, 0x6d, 0x75, 0x6c,
  0x5f, 0x31, 0x3b, 0x66, 0x75, 0x6e, 0x63, 0x74, 0x69, 0x6f, 0x6e, 0x61, 0x6c, 0x5f, 0x31, 0x2f,
  0x63, 0x6f, 0x6e, 0x76, 0x32, 0x64, 0x5f, 0x31, 0x5f, 0x32, 0x2f, 0x53, 0x71, 0x75, 0x65, 0x65,
  0x7a, 0x65, 0x3b, 0x66, 0x75, 0x6e, 0x63, 0x74, 0x69, 0x6f, 0x6e, 0x61, 0x6c, 0x5f, 0x31, 0x2f,
  0x63, 0x6f, 0x6e, 0x76, 0x32, 0x64, 0x5f, 0x31, 0x5f, 0x32, 0x2f, 0x42, 0x69, 0x61, 0x73, 0x41,
  0x64, 0x64, 0x3b, 0x66, 0x75, 0x6e, 0x63, 0x74, 0x69, 0x6f, 0x6e, 0x61, 0x6c, 0x5f, 0x31, 0x2f,
  0x62, 0x61, 0x74, 0x63, 0x68, 0x5f, 0x6e, 0x6f, 0x72, 0x6d, 0x61, 0x6c, 0x69, 0x7a, 0x61, 0x74,
  0x69, 0x6f, 0x6e, 0x5f, 0x32, 0x5f, 0x31, 0x2f, 0x62, 0x61, 0x74, 0x63, 0x68, 0x6e, 0x6f, 0x72,
  0x6d, 0x2f, 0x6d, 0x75, 0x6c, 0x3b, 0x66, 0x75, 0x6e, 0x63, 0x74, 0x69, 0x6f, 0x6e, 0x61, 0x6c,
  0x5f, 0x31, 0x2f, 0x63, 0x6f, 0x6e, 0x76, 0x32, 0x64, 0x5f, 0x31, 0x5f, 0x32, 0x2f, 0x63, 0x6f,
  0x6e, 0x76, 0x6f, 0x6c, 0x75, 0x74, 0x69, 0x6f, 0x6e, 0x3b, 0x66, 0x75, 0x6e, 0x63, 0x74, 0x69,
  0x6f, 0x6e, 0x61, 0x6c, 0x5f, 0x31, 0x2f, 0x62, 0x61, 0x74, 0x63, 0x68, 0x5f, 0x6e, 0x6f, 0x72,
  0x6d, 0x61, 0x6c, 0x69, 0x7a, 0x61, 0x74, 0x69, 0x6f, 0x6e, 0x5f, 0x32, 0x5f, 0x31, 0x2f, 0x62,
  0x61, 0x74, 0x63, 0x68, 0x6e, 0x6f, 0x72, 0x6d, 0x2f, 0x73, 0x75, 0x62, 0x00, 0x00, 0x00, 0x00,
  0x04, 0x00, 0x00, 0x00, 0x01, 0x00, 0x00, 0x00, 0x20, 0x00, 0x00, 0x00, 0x20, 0x00, 0x00, 0x00,
  0x10, 0x00, 0x00, 0x00, 0xc2, 0xe8, 0xff, 0xff, 0x00, 0x00, 0x00, 0x01, 0x18, 0x00, 0x00, 0x00,
  0x28, 0x00, 0x00, 0x00, 0x44, 0x00, 0x00, 0x00, 0x14, 0x00, 0x00, 0x00, 0x00, 0x00, 0x00, 0x09,
  0xa8, 0x01, 0x00, 0x00, 0x04, 0x00, 0x00, 0x00, 0xff, 0xff, 0xff, 0xff, 0x20, 0x00, 0x00, 0x00,
  0x20, 0x00, 0x00, 0x00, 0x08, 0x00, 0x00, 0x00, 0xac, 0xe8, 0xff, 0xff, 0x08, 0x00, 0x00, 0x00,
  0x10, 0x00, 0x00, 0x00, 0x01, 0x00, 0x00, 0x00, 0x80, 0xff, 0xff, 0xff, 0xff, 0xff, 0xff, 0xff,
  0x01, 0x00, 0x00, 0x00, 0x33, 0x00, 0x12, 0x3e, 0x6a, 0x01, 0x00, 0x00, 0x66, 0x75, 0x6e, 0x63,
  0x74, 0x69, 0x6f, 0x6e, 0x61, 0x6c, 0x5f, 0x31, 0x2f, 0x61, 0x63, 0x74, 0x69, 0x76, 0x61, 0x74,
  0x69, 0x6f, 0x6e, 0x5f, 0x31, 0x5f, 0x32, 0x2f, 0x52, 0x65, 0x6c, 0x75, 0x3b, 0x66, 0x75, 0x6e,
  0x63, 0x74, 0x69, 0x6f, 0x6e, 0x61, 0x6c, 0x5f, 0x31, 0x2f, 0x62, 0x61, 0x74, 0x63, 0x68, 0x5f,
  0x6e, 0x6f, 0x72, 0x6d, 0x61, 0x6c, 0x69, 0x7a, 0x61, 0x74, 0x69, 0x6f, 0x6e, 0x5f, 0x31, 0x5f,
  0x32, 0x2f, 0x62, 0x61, 0x74, 0x63, 0x68, 0x6e, 0x6f, 0x72, 0x6d, 0x2f, 0x61, 0x64, 0x64, 0x5f,
  0x31, 0x3b, 0x66, 0x75, 0x6e, 0x63, 0x74, 0x69, 0x6f, 0x6e, 0x61, 0x6c, 0x5f, 0x31, 0x2f, 0x62,
  0x61, 0x74, 0x63, 0x68, 0x5f, 0x6e, 0x6f, 0x72, 0x6d, 0x61, 0x6c, 0x69, 0x7a, 0x61, 0x74, 0x69,
  0x6f, 0x6e, 0x5f, 0x31, 0x5f, 0x32, 0x2f, 0x62, 0x61, 0x74, 0x63, 0x68, 0x6e, 0x6f, 0x72, 0x6d,
  0x2f, 0x6d, 0x75, 0x6c, 0x5f, 0x31, 0x3b, 0x66, 0x75, 0x6e, 0x63, 0x74, 0x69, 0x6f, 0x6e, 0x61,
  0x6c, 0x5f, 0x31, 0x2f, 0x64, 0x65, 0x70, 0x74, 0x68, 0x77, 0x69, 0x73, 0x65, 0x5f, 0x63, 0x6f,
  0x6e, 0x76, 0x32, 0x64, 0x5f, 0x31, 0x2f, 0x42, 0x69, 0x61, 0x73, 0x41, 0x64, 0x64, 0x3b, 0x66,
  0x75, 0x6e, 0x63, 0x74, 0x69, 0x6f, 0x6e, 0x61, 0x6c, 0x5f, 0x31, 0x2f, 0x64, 0x65, 0x70, 0x74,
  0x68, 0x77, 0x69, 0x73, 0x65, 0x5f, 0x63, 0x6f, 0x6e, 0x76, 0x32, 0x64, 0x5f, 0x31, 0x2f, 0x64,
  0x65, 0x70, 0x74, 0x68, 0x77, 0x69, 0x73, 0x65, 0x3b, 0x66, 0x75, 0x6e, 0x63, 0x74, 0x69, 0x6f,
  0x6e, 0x61, 0x6c, 0x5f, 0x31, 0x2f, 0x64, 0x65, 0x70, 0x74, 0x68, 0x77, 0x69, 0x73, 0x65, 0x5f,
  0x63, 0x6f, 0x6e, 0x76, 0x32, 0x64, 0x5f, 0x31, 0x2f, 0x53, 0x71, 0x75, 0x65, 0x65, 0x7a, 0x65,
  0x3b, 0x66, 0x75, 0x6e, 0x63, 0x74, 0x69, 0x6f, 0x6e, 0x61, 0x6c, 0x5f, 0x31, 0x2f, 0x62, 0x61,
  0x74, 0x63, 0x68, 0x5f, 0x6e, 0x6f, 0x72, 0x6d, 0x61, 0x6c, 0x69, 0x7a, 0x61, 0x74, 0x69, 0x6f,
  0x6e, 0x5f, 0x31, 0x5f, 0x32, 0x2f, 0x62, 0x61, 0x74, 0x63, 0x68, 0x6e, 0x6f, 0x72, 0x6d, 0x2f,
  0x6d, 0x75, 0x6c, 0x3b, 0x66, 0x75, 0x6e, 0x63, 0x74, 0x69, 0x6f, 0x6e, 0x61, 0x6c, 0x5f, 0x31,
  0x2f, 0x62, 0x61, 0x74, 0x63, 0x68, 0x5f, 0x6e, 0x6f, 0x72, 0x6d, 0x61, 0x6c, 0x69, 0x7a, 0x61,
  0x74, 0x69, 0x6f, 0x6e, 0x5f, 0x31, 0x5f, 0x32, 0x2f, 0x62, 0x61, 0x74, 0x63, 0x68, 0x6e, 0x6f,
  0x72, 0x6d, 0x2f, 0x73, 0x75, 0x62, 0x00, 0x00, 0x04, 0x00, 0x00, 0x00, 0x01, 0x00, 0x00, 0x00,
  0x20, 0x00, 0x00, 0x00, 0x20, 0x00, 0x00, 0x00, 0x08, 0x00, 0x00, 0x00, 0x9a, 0xea, 0xff, 0xff,
  0x00, 0x00, 0x00, 0x01, 0x18, 0x00, 0x00, 0x00, 0x28, 0x00, 0x00, 0x00, 0x48, 0x00, 0x00, 0x00,
  0x13, 0x00, 0x00, 0x00, 0x00, 0x00, 0x00, 0x09, 0x88, 0x01, 0x00, 0x00, 0x04, 0x00, 0x00, 0x00,
  0xff, 0xff, 0xff, 0xff, 0x20, 0x00, 0x00, 0x00, 0x20, 0x00, 0x00, 0x00, 0x08, 0x00, 0x00, 0x00,
  0x84, 0xea, 0xff, 0xff, 0x08, 0x00, 0x00, 0x00, 0x14, 0x00, 0x00, 0x00, 0x01, 0x00, 0x00, 0x00,
  0x80, 0xff, 0xff, 0xff, 0xff, 0xff, 0xff, 0xff, 0x00, 0x00, 0x00, 0x00, 0x01, 0x00, 0x00, 0x00,
  0xc1, 0x22, 0x3f, 0x3d, 0x45, 0x01, 0x00, 0x00, 0x66, 0x75, 0x6e, 0x63, 0x74, 0x69, 0x6f, 0x6e,
  0x61, 0x6c, 0x5f, 0x31, 0x2f, 0x61, 0x63, 0x74, 0x69, 0x76, 0x61, 0x74, 0x69, 0x6f, 0x6e, 0x5f,
  0x31, 0x2f, 0x52, 0x65, 0x6c, 0x75, 0x3b, 0x66, 0x75, 0x6e, 0x63, 0x74, 0x69, 0x6f, 0x6e, 0x61,
  0x6c, 0x5f, 0x31, 0x2f, 0x62, 0x61, 0x74, 0x63, 0x68, 0x5f, 0x6e, 0x6f, 0x72, 0x6d, 0x61, 0x6c,
  0x69, 0x7a, 0x61, 0x74, 0x69, 0x6f, 0x6e, 0x5f, 0x31, 0x2f, 0x62, 0x61, 0x74, 0x63, 0x68, 0x6e,
  0x6f, 0x72, 0x6d, 0x2f, 0x61, 0x64, 0x64, 0x5f, 0x31, 0x3b, 0x66, 0x75, 0x6e, 0x63, 0x74, 0x69,
  0x6f, 0x6e, 0x61, 0x6c, 0x5f, 0x31, 0x2f, 0x62, 0x61, 0x74, 0x63, 0x68, 0x5f, 0x6e, 0x6f, 0x72,
  0x6d, 0x61, 0x6c, 0x69, 0x7a, 0x61, 0x74, 0x69, 0x6f, 0x6e, 0x5f, 0x31, 0x2f, 0x62, 0x61, 0x74,
  0x63, 0x68, 0x6e, 0x6f, 0x72, 0x6d, 0x2f, 0x6d, 0x75, 0x6c, 0x5f, 0x31, 0x3b, 0x66, 0x75, 0x6e,
  0x63, 0x74, 0x69, 0x6f, 0x6e, 0x61, 0x6c, 0x5f, 0x31, 0x2f, 0x63, 0x6f, 0x6e, 0x76, 0x32, 0x64,
  0x5f, 0x31, 0x2f, 0x53, 0x71, 0x75, 0x65, 0x65, 0x7a, 0x65, 0x3b, 0x66, 0x75, 0x6e, 0x63, 0x74,
  0x69, 0x6f, 0x6e, 0x61, 0x6c, 0x5f, 0x31, 0x2f, 0x63, 0x6f, 0x6e, 0x76, 0x32, 0x64, 0x5f, 0x31,
  0x2f, 0x42, 0x69, 0x61, 0x73, 0x41, 0x64, 0x64, 0x3b, 0x66, 0x75, 0x6e, 0x63, 0x74, 0x69, 0x6f,
  0x6e, 0x61, 0x6c, 0x5f, 0x31, 0x2f, 0x62, 0x61, 0x74, 0x63, 0x68, 0x5f, 0x6e, 0x6f, 0x72, 0x6d,
  0x61, 0x6c, 0x69, 0x7a, 0x61, 0x74, 0x69, 0x6f, 0x6e, 0x5f, 0x31, 0x2f, 0x62, 0x61, 0x74, 0x63,
  0x68, 0x6e, 0x6f, 0x72, 0x6d, 0x2f, 0x6d, 0x75, 0x6c, 0x3b, 0x66, 0x75, 0x6e, 0x63, 0x74, 0x69,
  0x6f, 0x6e, 0x61, 0x6c, 0x5f, 0x31, 0x2f, 0x63, 0x6f, 0x6e, 0x76, 0x32, 0x64, 0x5f, 0x31, 0x2f,
  0x63, 0x6f, 0x6e, 0x76, 0x6f, 0x6c, 0x75, 0x74, 0x69, 0x6f, 0x6e, 0x3b, 0x66, 0x75, 0x6e, 0x63,
  0x74, 0x69, 0x6f, 0x6e, 0x61, 0x6c, 0x5f, 0x31, 0x2f, 0x62, 0x61, 0x74, 0x63, 0x68, 0x5f, 0x6e,
  0x6f, 0x72, 0x6d, 0x61, 0x6c, 0x69, 0x7a, 0x61, 0x74, 0x69, 0x6f, 0x6e, 0x5f, 0x31, 0x2f, 0x62,
  0x61, 0x74, 0x63, 0x68, 0x6e, 0x6f, 0x72, 0x6d, 0x2f, 0x73, 0x75, 0x62, 0x31, 0x00, 0x00, 0x00,
  0x04, 0x00, 0x00, 0x00, 0x01, 0x00, 0x00, 0x00, 0x20, 0x00, 0x00, 0x00, 0x20, 0x00, 0x00, 0x00,
  0x08, 0x00, 0x00, 0x00, 0xaa, 0xec, 0xff, 0xff, 0x00, 0x00, 0x00, 0x01, 0x14, 0x00, 0x00, 0x00,
  0x88, 0x00, 0x00, 0x00, 0x12, 0x00, 0x00, 0x00, 0x00, 0x00, 0x00, 0x09, 0x94, 0x00, 0x00, 0x00,
  0x24, 0xec, 0xff, 0xff, 0x08, 0x00, 0x00, 0x00, 0x4c, 0x00, 0x00, 0x00, 0x08, 0x00, 0x00, 0x00,
  0x00, 0x00, 0x00, 0x00, 0x00, 0x00, 0x00, 0x00, 0x00, 0x00, 0x00, 0x00, 0x00, 0x00, 0x00, 0x00,
  0x00, 0x00, 0x00, 0x00, 0x00, 0x00, 0x00, 0x00, 0x00, 0x00, 0x00, 0x00, 0x00, 0x00, 0x00, 0x00,
  0x00, 0x00, 0x00, 0x00, 0x00, 0x00, 0x00, 0x00, 0x00, 0x00, 0x00, 0x00, 0x00, 0x00, 0x00, 0x00,
  0x00, 0x00, 0x00, 0x00, 0x00, 0x00, 0x00, 0x00, 0x00, 0x00, 0x00, 0x00, 0x00, 0x00, 0x00, 0x00,
  0x00, 0x00, 0x00, 0x00, 0x08, 0x00, 0x00, 0x00, 0x9d, 0xf8, 0xe1, 0x3c, 0x3a, 0xbb, 0xb3, 0x3c,
  0x8b, 0x8a, 0x12, 0x3c, 0x5f, 0xf8, 0xc6, 0x3c, 0x73, 0xd2, 0x65, 0x3c, 0x46, 0xf7, 0xf6, 0x3b,
  0xd4, 0x6f, 0x0e, 0x3d, 0x1d, 0x67, 0x20, 0x3c, 0x13, 0x00, 0x00, 0x00, 0x74, 0x66, 0x6c, 0x2e,
  0x70, 0x73, 0x65, 0x75, 0x64, 0x6f, 0x5f, 0x71, 0x63, 0x6f, 0x6e, 0x73, 0x74, 0x31, 0x35, 0x00,
  0x04, 0x00, 0x00, 0x00, 0x08, 0x00, 0x00, 0x00, 0x03, 0x00, 0x00, 0x00, 0x03, 0x00, 0x00, 0x00,
  0x03, 0x00, 0x00, 0x00, 0x6a, 0xed, 0xff, 0xff, 0x00, 0x00, 0x00, 0x01, 0x14, 0x00, 0x00, 0x00,
  0x88, 0x00, 0x00, 0x00, 0x11, 0x00, 0x00, 0x00, 0x00, 0x00, 0x00, 0x02, 0x94, 0x00, 0x00, 0x00,
  0xe4, 0xec, 0xff, 0xff, 0x08, 0x00, 0x00, 0x00, 0x4c, 0x00, 0x00, 0x00, 0x08, 0x00, 0x00, 0x00,
  0x00, 0x00, 0x00, 0x00, 0x00, 0x00, 0x00, 0x00, 0x00, 0x00, 0x00, 0x00, 0x00, 0x00, 0x00, 0x00,
  0x00, 0x00, 0x00, 0x00, 0x00, 0x00, 0x00, 0x00, 0x00, 0x00, 0x00, 0x00, 0x00, 0x00, 0x00, 0x00,
  0x00, 0x00, 0x00, 0x00, 0x00, 0x00, 0x00, 0x00, 0x00, 0x00, 0x00, 0x00, 0x00, 0x00, 0x00, 0x00,
  0x00, 0x00, 0x00, 0x00, 0x00, 0x00, 0x00, 0x00, 0x00, 0x00, 0x00, 0x00, 0x00, 0x00, 0x00, 0x00,
  0x00, 0x00, 0x00, 0x00, 0x08, 0x00, 0x00, 0x00, 0x71, 0xdb, 0xe2, 0x38, 0xa3, 0x6f, 0xb4, 0x38,
  0xa4, 0x1d, 0x13, 0x38, 0x18, 0xc0, 0xc7, 0x38, 0x24, 0xb9, 0x66, 0x38, 0x2d, 0xef, 0xf7, 0x37,
  0xce, 0xfe, 0x0e, 0x39, 0x20, 0x08, 0x21, 0x38, 0x13, 0x00, 0x00, 0x00, 0x74, 0x66, 0x6c, 0x2e,
  0x70, 0x73, 0x65, 0x75, 0x64, 0x6f, 0x5f, 0x71, 0x63, 0x6f, 0x6e, 0x73, 0x74, 0x31, 0x34, 0x00,
  0x01, 0x00, 0x00, 0x00, 0x08, 0x00, 0x00, 0x00, 0x1e, 0xee, 0xff, 0xff, 0x00, 0x00, 0x00, 0x01,
  0x14, 0x00, 0x00, 0x00, 0x8c, 0x00, 0x00, 0x00, 0x10, 0x00, 0x00, 0x00, 0x00, 0x00, 0x00, 0x09,
  0x98, 0x00, 0x00, 0x00, 0x72, 0xf6, 0xff, 0xff, 0x03, 0x00, 0x00, 0x00, 0x08, 0x00, 0x00, 0x00,
  0x4c, 0x00, 0x00, 0x00, 0x08, 0x00, 0x00, 0x00, 0x00, 0x00, 0x00, 0x00, 0x00, 0x00, 0x00, 0x00,
  0x00, 0x00, 0x00, 0x00, 0x00, 0x00, 0x00, 0x00, 0x00, 0x00, 0x00, 0x00, 0x00, 0x00, 0x00, 0x00,
  0x00, 0x00, 0x00, 0x00, 0x00, 0x00, 0x00, 0x00, 0x00, 0x00, 0x00, 0x00, 0x00, 0x00, 0x00, 0x00,
  0x00, 0x00, 0x00, 0x00, 0x00, 0x00, 0x00, 0x00, 0x00, 0x00, 0x00, 0x00, 0x00, 0x00, 0x00, 0x00,
  0x00, 0x00, 0x00, 0x00, 0x00, 0x00, 0x00, 0x00, 0x00, 0x00, 0x00, 0x00, 0x08, 0x00, 0x00, 0x00,
  0x49, 0x37, 0x09, 0x3c, 0x6d, 0x4e, 0xbf, 0x3b, 0x48, 0x38, 0xfe, 0x3b, 0x19, 0xd8, 0xad, 0x3c,
  0x34, 0x8a, 0xd7, 0x3b, 0xa8, 0xad, 0xa6, 0x3c, 0x1c, 0x3b, 0x1b, 0x3c, 0x3d, 0x4d, 0x9e, 0x3c,
  0x13, 0x00, 0x00, 0x00, 0x74, 0x66, 0x6c, 0x2e, 0x70, 0x73, 0x65, 0x75, 0x64, 0x6f, 0x5f, 0x71,
  0x63, 0x6f, 0x6e, 0x73, 0x74, 0x31, 0x33, 0x00, 0x04, 0x00, 0x00, 0x00, 0x01, 0x00, 0x00, 0x00,
  0x03, 0x00, 0x00, 0x00, 0x03, 0x00, 0x00, 0x00, 0x08, 0x00, 0x00, 0x00, 0xe2, 0xee, 0xff, 0xff,
  0x00, 0x00, 0x00, 0x01, 0x14, 0x00, 0x00, 0x00, 0x84, 0x00, 0x00, 0x00, 0x0f, 0x00, 0x00, 0x00,
  0x00, 0x00, 0x00, 0x02, 0x90, 0x00, 0x00, 0x00, 0x5c, 0xee, 0xff, 0xff, 0x08, 0x00, 0x00, 0x00,
  0x48, 0x00, 0x00, 0x00, 0x08, 0x00, 0x00, 0x00, 0x00, 0x00, 0x00, 0x00, 0x00, 0x00, 0x00, 0x00,
  0x00, 0x00, 0x00, 0x00, 0x00, 0x00, 0x00, 0x00, 0x00, 0x00, 0x00, 0x00, 0x00, 0x00, 0x00, 0x00,
  0x00, 0x00, 0x00, 0x00, 0x00, 0x00, 0x00, 0x00, 0x00, 0x00, 0x00, 0x00, 0x00, 0x00, 0x00, 0x00,
  0x00, 0x00, 0x00, 0x00, 0x00, 0x00, 0x00, 0x00, 0x00, 0x00, 0x00, 0x00, 0x00, 0x00, 0x00, 0x00,
  0x00, 0x00, 0x00, 0x00, 0x00, 0x00, 0x00, 0x00, 0x08, 0x00, 0x00, 0x00, 0xc1, 0xe5, 0xcc, 0x39,
  0x7c, 0xd5, 0x8e, 0x39, 0x81, 0xce, 0xbd, 0x39, 0xd4, 0xcb, 0x81, 0x3a, 0x60, 0xed, 0xa0, 0x39,
  0x62, 0xe4, 0x78, 0x3a, 0x5a, 0xcc, 0xe7, 0x39, 0x3c, 0x62, 0x6c, 0x3a, 0x13, 0x00, 0x00, 0x00,
  0x74, 0x66, 0x6c, 0x2e, 0x70, 0x73, 0x65, 0x75, 0x64, 0x6f, 0x5f, 0x71, 0x63, 0x6f, 0x6e, 0x73,
  0x74, 0x31, 0x32, 0x00, 0x01, 0x00, 0x00, 0x00, 0x08, 0x00, 0x00, 0x00, 0x92, 0xef, 0xff, 0xff,
  0x00, 0x00, 0x00, 0x01, 0x14, 0x00, 0x00, 0x00, 0xe8, 0x00, 0x00, 0x00, 0x0e, 0x00, 0x00, 0x00,
  0x00, 0x00, 0x00, 0x09, 0xf4, 0x00, 0x00, 0x00, 0x0c, 0xef, 0xff, 0xff, 0x08, 0x00, 0x00, 0x00,
  0x8c, 0x00, 0x00, 0x00, 0x10, 0x00, 0x00, 0x00, 0x00, 0x00, 0x00, 0x00, 0x00, 0x00, 0x00, 0x00,
  0x00, 0x00, 0x00, 0x00, 0x00, 0x00, 0x00, 0x00, 0x00, 0x00, 0x00, 0x00, 0x00, 0x00, 0x00, 0x00,
  0x00, 0x00, 0x00, 0x00, 0x00, 0x00, 0x00, 0x00, 0x00, 0x00, 0x00, 0x00, 0x00, 0x00, 0x00, 0x00,
  0x00, 0x00, 0x00, 0x00, 0x00, 0x00, 0x00, 0x00, 0x00, 0x00, 0x00, 0x00, 0x00, 0x00, 0x00, 0x00,
  0x00, 0x00, 0x00, 0x00, 0x00, 0x00, 0x00, 0x00, 0x00, 0x00, 0x00, 0x00, 0x00, 0x00, 0x00, 0x00,
  0x00, 0x00, 0x00, 0x00, 0x00, 0x00, 0x00, 0x00, 0x00, 0x00, 0x00, 0x00, 0x00, 0x00, 0x00, 0x00,
  0x00, 0x00, 0x00, 0x00, 0x00, 0x00, 0x00, 0x00, 0x00, 0x00, 0x00, 0x00, 0x00, 0x00, 0x00, 0x00,
  0x00, 0x00, 0x00, 0x00, 0x00, 0x00, 0x00, 0x00, 0x00, 0x00, 0x00, 0x00, 0x00, 0x00, 0x00, 0x00,
  0x00, 0x00, 0x00, 0x00, 0x00, 0x00, 0x00, 0x00, 0x00, 0x00, 0x00, 0x00, 0x10, 0x00, 0x00, 0x00,
  0x49, 0x8e, 0x03, 0x3c, 0xf4, 0x58, 0xe5, 0x3b, 0x5c, 0x6a, 0xda, 0x3b, 0x71, 0xde, 0xf4, 0x3b,
  0x5a, 0x14, 0xf3, 0x3b, 0xf5, 0x5b, 0xfe, 0x3b, 0xcf, 0x9d, 0x82, 0x3c, 0x77, 0xc0, 0x1e, 0x3c,
  0xdb, 0xa7, 0x8f, 0x3c, 0xc8, 0xd5, 0x4b, 0x3c, 0xa0, 0xb5, 0x14, 0x3c, 0xcd, 0xbe, 0xf6, 0x3b,
  0x42, 0xe5, 0xf1, 0x3b, 0x19, 0x9b, 0xfc, 0x3b, 0x79, 0xd1, 0xda, 0x3b, 0x50, 0x3b, 0x40, 0x3c,
  0x13, 0x00, 0x00, 0x00, 0x74, 0x66, 0x6c, 0x2e, 0x70, 0x73, 0x65, 0x75, 0x64, 0x6f, 0x5f, 0x71,
  0x63, 0x6f, 0x6e, 0x73, 0x74, 0x31, 0x31, 0x00, 0x04, 0x00, 0x00, 0x00, 0x10, 0x00, 0x00, 0x00,
  0x01, 0x00, 0x00, 0x00, 0x01, 0x00, 0x00, 0x00, 0x08, 0x00, 0x00, 0x00, 0xb2, 0xf0, 0xff, 0xff,
  0x00, 0x00, 0x00, 0x01, 0x14, 0x00, 0x00, 0x00, 0xe8, 0x00, 0x00, 0x00, 0x0d, 0x00, 0x00, 0x00,
  0x00, 0x00, 0x00, 0x02, 0xf4, 0x00, 0x00, 0x00, 0x2c, 0xf0, 0xff, 0xff, 0x08, 0x00, 0x00, 0x00,
  0x8c, 0x00, 0x00, 0x00, 0x10, 0x00, 0x00, 0x00, 0x00, 0x00, 0x00, 0x00, 0x00, 0x00, 0x00, 0x00,
  0x00, 0x00, 0x00, 0x00, 0x00, 0x00, 0x00, 0x00, 0x00, 0x00, 0x00, 0x00, 0x00, 0x00, 0x00, 0x00,
  0x00, 0x00, 0x00, 0x00, 0x00, 0x00, 0x00, 0x00, 0x00, 0x00, 0x00, 0x00, 0x00, 0x00, 0x00, 0x00,
  0x00, 0x00, 0x00, 0x00, 0x00, 0x00, 0x00, 0x00, 0x00, 0x00, 0x00, 0x00, 0x00, 0x00, 0x00, 0x00,
  0x00, 0x00, 0x00, 0x00, 0x00, 0x00, 0x00, 0x00, 0x00, 0x00, 0x00, 0x00, 0x00, 0x00, 0x00, 0x00,
  0x00, 0x00, 0x00, 0x00, 0x00, 0x00, 0x00, 0x00, 0x00, 0x00, 0x00, 0x00, 0x00, 0x00, 0x00, 0x00,
  0x00, 0x00, 0x00, 0x00, 0x00, 0x00, 0x00, 0x00, 0x00, 0x00, 0x00, 0x00, 0x00, 0x00, 0x00, 0x00,
  0x00, 0x00, 0x00, 0x00, 0x00, 0x00, 0x00, 0x00, 0x00, 0x00, 0x00, 0x00, 0x00, 0x00, 0x00, 0x00,
  0x00, 0x00, 0x00, 0x00, 0x00, 0x00, 0x00, 0x00, 0x00, 0x00, 0x00, 0x00, 0x10, 0x00, 0x00, 0x00,
  0x80, 0x0e, 0x96, 0x3a, 0xe9, 0xcc, 0x82, 0x3a, 0xa8, 0x21, 0x79, 0x3a, 0x0d, 0xa7, 0x8b, 0x3a,
  0xcc, 0xa1, 0x8a, 0x3a, 0xa4, 0x10, 0x91, 0x3a, 0x34, 0xfc, 0x14, 0x3b, 0xc7, 0x13, 0xb5, 0x3a,
  0xaf, 0xdb, 0x23, 0x3b, 0x29, 0x80, 0xe8, 0x3a, 0x66, 0x9f, 0xa9, 0x3a, 0x02, 0xb9, 0x8c, 0x3a,
  0xf0, 0xf4, 0x89, 0x3a, 0xa7, 0x10, 0x90, 0x3a, 0x45, 0x97, 0x79, 0x3a, 0xf4, 0x43, 0xdb, 0x3a,
  0x13, 0x00, 0x00, 0x00, 0x74, 0x66, 0x6c, 0x2e, 0x70, 0x73, 0x65, 0x75, 0x64, 0x6f, 0x5f, 0x71,
  0x63, 0x6f, 0x6e, 0x73, 0x74, 0x31, 0x30, 0x00, 0x01, 0x00, 0x00, 0x00, 0x10, 0x00, 0x00, 0x00,
  0xc6, 0xf1, 0xff, 0xff, 0x00, 0x00, 0x00, 0x01, 0x14, 0x00, 0x00, 0x00, 0xec, 0x00, 0x00, 0x00,
  0x0c, 0x00, 0x00, 0x00, 0x00, 0x00, 0x00, 0x09, 0xf8, 0x00, 0x00, 0x00, 0x1a, 0xfa, 0xff, 0xff,
  0x03, 0x00, 0x00, 0x00, 0x08, 0x00, 0x00, 0x00, 0x8c, 0x00, 0x00, 0x00, 0x10, 0x00, 0x00, 0x00,
  0x00, 0x00, 0x00, 0x00, 0x00, 0x00, 0x00, 0x00, 0x00, 0x00, 0x00, 0x00, 0x00, 0x00, 0x00, 0x00,
  0x00, 0x00, 0x00, 0x00, 0x00, 0x00, 0x00, 0x00, 0x00, 0x00, 0x00, 0x00, 0x00, 0x00, 0x00, 0x00,
  0x00, 0x00, 0x00, 0x00, 0x00, 0x00, 0x00, 0x00, 0x00, 0x00, 0x00, 0x00, 0x00, 0x00, 0x00, 0x00,
  0x00, 0x00, 0x00, 0x00, 0x00, 0x00, 0x00, 0x00, 0x00, 0x00, 0x00, 0x00, 0x00, 0x00, 0x00, 0x00,
  0x00, 0x00, 0x00, 0x00, 0x00, 0x00, 0x00, 0x00, 0x00, 0x00, 0x00, 0x00, 0x00, 0x00, 0x00, 0x00,
  0x00, 0x00, 0x00, 0x00, 0x00, 0x00, 0x00, 0x00, 0x00, 0x00, 0x00, 0x00, 0x00, 0x00, 0x00, 0x00,
  0x00, 0x00, 0x00, 0x00, 0x00, 0x00, 0x00, 0x00, 0x00, 0x00, 0x00, 0x00, 0x00, 0x00, 0x00, 0x00,
  0x00, 0x00, 0x00, 0x00, 0x00, 0x00, 0x00, 0x00, 0x00, 0x00, 0x00, 0x00, 0x00, 0x00, 0x00, 0x00,
  0x00, 0x00, 0x00, 0x00, 0x10, 0x00, 0x00, 0x00, 0xee, 0x9d, 0xb7, 0x3c, 0x7e, 0x4c, 0xd0, 0x3b,
  0x4c, 0x9e, 0xae, 0x3b, 0xa4, 0x83, 0xcb, 0x3b, 0x22, 0x50, 0x8a, 0x3b, 0xb7, 0x26, 0x38, 0x3c,
  0x8f, 0xf7, 0x86, 0x3b, 0xac, 0x71, 0x05, 0x3c, 0x1b, 0x40, 0xab, 0x3b, 0xc4, 0xa6, 0x18, 0x3b,
  0x1f, 0x17, 0xa8, 0x3b, 0xb4, 0x4e, 0xfb, 0x3b, 0xd8, 0x47, 0xd3, 0x3c, 0x93, 0xcd, 0x8d, 0x3c,
  0x2a, 0x54, 0x60, 0x3c, 0x12, 0x12, 0x9e, 0x3b, 0x12, 0x00, 0x00, 0x00, 0x74, 0x66, 0x6c, 0x2e,
  0x70, 0x73, 0x65, 0x75, 0x64, 0x6f, 0x5f, 0x71, 0x63, 0x6f, 0x6e, 0x73, 0x74, 0x39, 0x00, 0x00,
  0x04, 0x00, 0x00, 0x00, 0x01, 0x00, 0x00, 0x00, 0x03, 0x00, 0x00, 0x00, 0x03, 0x00, 0x00, 0x00,
  0x10, 0x00, 0x00, 0x00, 0xea, 0xf2, 0xff, 0xff, 0x00, 0x00, 0x00, 0x01, 0x14, 0x00, 0x00, 0x00,
  0xe4, 0x00, 0x00, 0x00, 0x0b, 0x00, 0x00, 0x00, 0x00, 0x00, 0x00, 0x02, 0xf0, 0x00, 0x00, 0x00,
  0x64, 0xf2, 0xff, 0xff, 0x08, 0x00, 0x00, 0x00, 0x88, 0x00, 0x00, 0x00, 0x10, 0x00, 0x00, 0x00,
  0x00, 0x00, 0x00, 0x00, 0x00, 0x00, 0x00, 0x00, 0x00, 0x00, 0x00, 0x00, 0x00, 0x00, 0x00, 0x00,
  0x00, 0x00, 0x00, 0x00, 0x00, 0x00, 0x00, 0x00, 0x00, 0x00, 0x00, 0x00, 0x00, 0x00, 0x00, 0x00,
  0x00, 0x00, 0x00, 0x00, 0x00, 0x00, 0x00, 0x00, 0x00, 0x00, 0x00, 0x00, 0x00, 0x00, 0x00, 0x00,
  0x00, 0x00, 0x00, 0x00, 0x00, 0x00, 0x00, 0x00, 0x00, 0x00, 0x00, 0x00, 0x00, 0x00, 0x00, 0x00,
  0x00, 0x00, 0x00, 0x00, 0x00, 0x00, 0x00, 0x00, 0x00, 0x00, 0x00, 0x00, 0x00, 0x00, 0x00, 0x00,
  0x00, 0x00, 0x00, 0x00, 0x00, 0x00, 0x00, 0x00, 0x00, 0x00, 0x00, 0x00, 0x00, 0x00, 0x00, 0x00,
  0x00, 0x00, 0x00, 0x00, 0x00, 0x00, 0x00, 0x00, 0x00, 0x00, 0x00, 0x00, 0x00, 0x00, 0x00, 0x00,
  0x00, 0x00, 0x00, 0x00, 0x00, 0x00, 0x00, 0x00, 0x00, 0x00, 0x00, 0x00, 0x00, 0x00, 0x00, 0x00,
  0x10, 0x00, 0x00, 0x00, 0x10, 0x12, 0x43, 0x3b, 0xc3, 0x4a, 0x5d, 0x3a, 0xbc, 0x82, 0x39, 0x3a,
  0x82, 0x35, 0x58, 0x3a, 0xd2, 0xf0, 0x12, 0x3a, 0x61, 0xa3, 0xc3, 0x3a, 0xd0, 0x62, 0x0f, 0x3a,
  0x9b, 0xc4, 0x8d, 0x3a, 0xc3, 0xee, 0x35, 0x3a, 0x6b, 0x2c, 0xa2, 0x39, 0x50, 0x93, 0x32, 0x3a,
  0xe2, 0x7d, 0x85, 0x3a, 0xbb, 0x75, 0x60, 0x3b, 0xfe, 0xa5, 0x16, 0x3b, 0x6a, 0x52, 0xee, 0x3a,
  0x43, 0xee, 0x27, 0x3a, 0x12, 0x00, 0x00, 0x00, 0x74, 0x66, 0x6c, 0x2e, 0x70, 0x73, 0x65, 0x75,
  0x64, 0x6f, 0x5f, 0x71, 0x63, 0x6f, 0x6e, 0x73, 0x74, 0x38, 0x00, 0x00, 0x01, 0x00, 0x00, 0x00,
  0x10, 0x00, 0x00, 0x00, 0xfa, 0xf3, 0xff, 0xff, 0x00, 0x00, 0x00, 0x01, 0x14, 0x00, 0x00, 0x00,
  0xa8, 0x01, 0x00, 0x00, 0x0a, 0x00, 0x00, 0x00, 0x00, 0x00, 0x00, 0x09, 0xb4, 0x01, 0x00, 0x00,
  0x74, 0xf3, 0xff, 0xff, 0x08, 0x00, 0x00, 0x00, 0x0c, 0x01, 0x00, 0x00, 0x20, 0x00, 0x00, 0x00,
  0x00, 0x00, 0x00, 0x00, 0x00, 0x00, 0x00, 0x00, 0x00, 0x00, 0x00, 0x00, 0x00, 0x00, 0x00, 0x00,
  0x00, 0x00, 0x00, 0x00, 0x00, 0x00, 0x00, 0x00, 0x00, 0x00, 0x00, 0x00, 0x00, 0x00, 0x00, 0x00,
  0x00, 0x00, 0x00, 0x00, 0x00, 0x00, 0x00, 0x00, 0x00, 0x00, 0x00, 0x00, 0x00, 0x00, 0x00, 0x00,
  0x00, 0x00, 0x00, 0x00, 0x00, 0x00, 0x00, 0x00, 0x00, 0x00, 0x00, 0x00, 0x00, 0x00, 0x00, 0x00,
  0x00, 0x00, 0x00, 0x00, 0x00, 0x00, 0x00, 0x00, 0x00, 0x00, 0x00, 0x00, 0x00, 0x00, 0x00, 0x00,
  0x00, 0x00, 0x00, 0x00, 0x00, 0x00, 0x00, 0x00, 0x00, 0x00, 0x00, 0x00, 0x00, 0x00, 0x00, 0x00,
  0x00, 0x00, 0x00, 0x00, 0x00, 0x00, 0x00, 0x00, 0x00, 0x00, 0x00, 0x00, 0x00, 0x00, 0x00, 0x00,
  0x00, 0x00, 0x00, 0x00, 0x00, 0x00, 0x00, 0x00, 0x00, 0x00, 0x00, 0x00, 0x00, 0x00, 0x00, 0x00,
  0x00, 0x00, 0x00, 0x00, 0x00, 0x00, 0x00, 0x00, 0x00, 0x00, 0x00, 0x00, 0x00, 0x00, 0x00, 0x00,
  0x00, 0x00, 0x00, 0x00, 0x00, 0x00, 0x00, 0x00, 0x00, 0x00, 0x00, 0x00, 0x00, 0x00, 0x00, 0x00,
  0x00, 0x00, 0x00, 0x00, 0x00, 0x00, 0x00, 0x00, 0x00, 0x00, 0x00, 0x00, 0x00, 0x00, 0x00, 0x00,
  0x00, 0x00, 0x00, 0x00, 0x00, 0x00, 0x00, 0x00, 0x00, 0x00, 0x00, 0x00, 0x00, 0x00, 0x00, 0x00,
  0x00, 0x00, 0x00, 0x00, 0x00, 0x00, 0x00, 0x00, 0x00, 0x00, 0x00, 0x00, 0x00, 0x00, 0x00, 0x00,
  0x00, 0x00, 0x00, 0x00, 0x00, 0x00, 0x00, 0x00, 0x00, 0x00, 0x00, 0x00, 0x00, 0x00, 0x00, 0x00,
  0x00, 0x00, 0x00, 0x00, 0x00, 0x00, 0x00, 0x00, 0x00, 0x00, 0x00, 0x00, 0x00, 0x00, 0x00, 0x00,
  0x00, 0x00, 0x00, 0x00, 0x00, 0x00, 0x00, 0x00, 0x00, 0x00, 0x00, 0x00, 0x00, 0x00, 0x00, 0x00,
  0x00, 0x00, 0x00, 0x00, 0x20, 0x00, 0x00, 0x00, 0xfe, 0x43, 0xbf, 0x3b, 0x7d, 0x8b, 0xe6, 0x3b,
  0x7f, 0x7e, 0x8e, 0x3b, 0x70, 0xe9, 0xbb, 0x3b, 0xa3, 0xab, 0xae, 0x3b, 0xc1, 0x23, 0xf7, 0x3b,
  0xb0, 0x41, 0xba, 0x3b, 0xc3, 0x7f, 0xec, 0x3b, 0x3b, 0x8c, 0x87, 0x3b, 0x19, 0x36, 0xd8, 0x3b,
  0x6c, 0x14, 0xc9, 0x3b, 0x77, 0x03, 0xee, 0x3b, 0x83, 0x16, 0xb9, 0x3b, 0x9b, 0x6b, 0x9d, 0x3b,
  0x87, 0x56, 0xcf, 0x3b, 0x1f, 0xc1, 0x4d, 0x3b, 0x6b, 0xba, 0xb6, 0x3b, 0xe6, 0x63, 0xad, 0x3b,
  0xb9, 0x2a, 0x02, 0x3c, 0x80, 0x77, 0xa4, 0x3b, 0x84, 0xd4, 0xbc, 0x3b, 0xa5, 0x64, 0xa3, 0x3b,
  0x5c, 0x4a, 0x2f, 0x3c, 0x44, 0x7f, 0xc6, 0x3b, 0x48, 0xa9, 0xb9, 0x3b, 0x66, 0xae, 0xb7, 0x3b,
  0x88, 0x28, 0xb8, 0x3b, 0xf0, 0x08, 0xdb, 0x3b, 0x95, 0x99, 0x8d, 0x3b, 0x46, 0x65, 0x99, 0x3b,
  0x99, 0xb1, 0xd9, 0x3b, 0x71, 0x7c, 0xf9, 0x3b, 0x12, 0x00, 0x00, 0x00, 0x74, 0x66, 0x6c, 0x2e,
  0x70, 0x73, 0x65, 0x75, 0x64, 0x6f, 0x5f, 0x71, 0x63, 0x6f, 0x6e, 0x73, 0x74, 0x37, 0x00, 0x00,
  0x04, 0x00, 0x00, 0x00, 0x20, 0x00, 0x00, 0x00, 0x01, 0x00, 0x00, 0x00, 0x01, 0x00, 0x00, 0x00,
  0x10, 0x00, 0x00, 0x00, 0xda, 0xf5, 0xff, 0xff, 0x00, 0x00, 0x00, 0x01, 0x14, 0x00, 0x00, 0x00,
  0xa4, 0x01, 0x00, 0x00, 0x09, 0x00, 0x00, 0x00, 0x00, 0x00, 0x00, 0x02, 0xb0, 0x01, 0x00, 0x00,
  0x54, 0xf5, 0xff, 0xff, 0x08, 0x00, 0x00, 0x00, 0x08, 0x01, 0x00, 0x00, 0x20, 0x00, 0x00, 0x00,
  0x00, 0x00, 0x00, 0x00, 0x00, 0x00, 0x00, 0x00, 0x00, 0x00, 0x00, 0x00, 0x00, 0x00, 0x00, 0x00,
  0x00, 0x00, 0x00, 0x00, 0x00, 0x00, 0x00, 0x00, 0x00, 0x00, 0x00, 0x00, 0x00, 0x00, 0x00, 0x00,
  0x00, 0x00, 0x00, 0x00, 0x00, 0x00, 0x00, 0x00, 0x00, 0x00, 0x00, 0x00, 0x00, 0x00, 0x00, 0x00,
  0x00, 0x00, 0x00, 0x00, 0x00, 0x00, 0x00, 0x00, 0x00, 0x00, 0x00, 0x00, 0x00, 0x00, 0x00, 0x00,
  0x00, 0x00, 0x00, 0x00, 0x00, 0x00, 0x00, 0x00, 0x00, 0x00, 0x00, 0x00, 0x00, 0x00, 0x00, 0x00,
  0x00, 0x00, 0x00, 0x00, 0x00, 0x00, 0x00, 0x00, 0x00, 0x00, 0x00, 0x00, 0x00, 0x00, 0x00, 0x00,
  0x00, 0x00, 0x00, 0x00, 0x00, 0x00, 0x00, 0x00, 0x00, 0x00, 0x00, 0x00, 0x00, 0x00, 0x00, 0x00,
  0x00, 0x00, 0x00, 0x00, 0x00, 0x00, 0x00, 0x00, 0x00, 0x00, 0x00, 0x00, 0x00, 0x00, 0x00, 0x00,
  0x00, 0x00, 0x00, 0x00, 0x00, 0x00, 0x00, 0x00, 0x00, 0x00, 0x00, 0x00, 0x00, 0x00, 0x00, 0x00,
  0x00, 0x00, 0x00, 0x00, 0x00, 0x00, 0x00, 0x00, 0x00, 0x00, 0x00, 0x00, 0x00, 0x00, 0x00, 0x00,
  0x00, 0x00, 0x00, 0x00, 0x00, 0x00, 0x00, 0x00, 0x00, 0x00, 0x00, 0x00, 0x00, 0x00, 0x00, 0x00,
  0x00, 0x00, 0x00, 0x00, 0x00, 0x00, 0x00, 0x00, 0x00, 0x00, 0x00, 0x00, 0x00, 0x00, 0x00, 0x00,
  0x00, 0x00, 0x00, 0x00, 0x00, 0x00, 0x00, 0x00, 0x00, 0x00, 0x00, 0x00, 0x00, 0x00, 0x00, 0x00,
  0x00, 0x00, 0x00, 0x00, 0x00, 0x00, 0x00, 0x00, 0x00, 0x00, 0x00, 0x00, 0x00, 0x00, 0x00, 0x00,
  0x00, 0x00, 0x00, 0x00, 0x00, 0x00, 0x00, 0x00, 0x00, 0x00, 0x00, 0x00, 0x00, 0x00, 0x00, 0x00,
  0x00, 0x00, 0x00, 0x00, 0x00, 0x00, 0x00, 0x00, 0x00, 0x00, 0x00, 0x00, 0x00, 0x00, 0x00, 0x00,
  0x20, 0x00, 0x00, 0x00, 0x3a, 0x8b, 0x13, 0x3a, 0x1e, 0xd8, 0x31, 0x3a, 0x9f, 0xd7, 0xdb, 0x39,
  0xee, 0xf4, 0x10, 0x3a, 0x02, 0xbe, 0x06, 0x3a, 0x44, 0xa5, 0x3e, 0x3a, 0x0b, 0xae, 0x0f, 0x3a,
  0xf4, 0x6f, 0x36, 0x3a, 0x16, 0x20, 0xd1, 0x39, 0x85, 0xc9, 0x26, 0x3a, 0x55, 0x1d, 0x1b, 0x3a,
  0x08, 0x9b, 0x37, 0x3a, 0x42, 0xc7, 0x0e, 0x3a, 0xe4, 0xde, 0xf2, 0x39, 0x36, 0xf1, 0x1f, 0x3a,
  0x7a, 0xb8, 0x9e, 0x39, 0x41, 0xf5, 0x0c, 0x3a, 0x30, 0xc1, 0x05, 0x3a, 0xd8, 0xd2, 0x48, 0x3a,
  0xf8, 0xbd, 0xfd, 0x39, 0x45, 0xaa, 0x11, 0x3a, 0xeb, 0x15, 0xfc, 0x39, 0x73, 0x38, 0x87, 0x3a,
  0x50, 0x1f, 0x19, 0x3a, 0x7a, 0x38, 0x0f, 0x3a, 0x77, 0xb1, 0x0d, 0x3a, 0xae, 0x0f, 0x0e, 0x3a,
  0x20, 0xf7, 0x28, 0x3a, 0x73, 0x76, 0xda, 0x39, 0x47, 0xa9, 0xec, 0x39, 0x45, 0xee, 0x27, 0x3a,
  0xa4, 0x74, 0x40, 0x3a, 0x12, 0x00, 0x00, 0x00, 0x74, 0x66, 0x6c, 0x2e, 0x70, 0x73, 0x65, 0x75,
  0x64, 0x6f, 0x5f, 0x71, 0x63, 0x6f, 0x6e, 0x73, 0x74, 0x36, 0x00, 0x00, 0x01, 0x00, 0x00, 0x00,
  0x20, 0x00, 0x00, 0x00, 0xaa, 0xf7, 0xff, 0xff, 0x00, 0x00, 0x00, 0x01, 0x28, 0x00, 0x00, 0x00,
  0xc0, 0x01, 0x00, 0x00, 0x08, 0x00, 0x00, 0x00, 0x00, 0x00, 0x00, 0x09, 0xcc, 0x01, 0x00, 0x00,
  0x00, 0x00, 0x12, 0x00, 0x10, 0x00, 0x00, 0x00, 0x00, 0x00, 0x0c, 0x00, 0x08, 0x00, 0x00, 0x00,
  0x00, 0x00, 0x04, 0x00, 0x12, 0x00, 0x00, 0x00, 0x03, 0x00, 0x00, 0x00, 0x08, 0x00, 0x00, 0x00,
  0x0c, 0x01, 0x00, 0x00, 0x20, 0x00, 0x00, 0x00, 0x00, 0x00, 0x00, 0x00, 0x00, 0x00, 0x00, 0x00,
  0x00, 0x00, 0x00, 0x00, 0x00, 0x00, 0x00, 0x00, 0x00, 0x00, 0x00, 0x00, 0x00, 0x00, 0x00, 0x00,
  0x00, 0x00, 0x00, 0x00, 0x00, 0x00, 0x00, 0x00, 0x00, 0x00, 0x00, 0x00, 0x00, 0x00, 0x00, 0x00,
  0x00, 0x00, 0x00, 0x00, 0x00, 0x00, 0x00, 0x00, 0x00, 0x00, 0x00, 0x00, 0x00, 0x00, 0x00, 0x00,
  0x00, 0x00, 0x00, 0x00, 0x00, 0x00, 0x00, 0x00, 0x00, 0x00, 0x00, 0x00, 0x00, 0x00, 0x00, 0x00,
  0x00, 0x00, 0x00, 0x00, 0x00, 0x00, 0x00, 0x00, 0x00, 0x00, 0x00, 0x00, 0x00, 0x00, 0x00, 0x00,
  0x00, 0x00, 0x00, 0x00, 0x00, 0x00, 0x00, 0x00, 0x00, 0x00, 0x00, 0x00, 0x00, 0x00, 0x00, 0x00,
  0x00, 0x00, 0x00, 0x00, 0x00, 0x00, 0x00, 0x00, 0x00, 0x00, 0x00, 0x00, 0x00, 0x00, 0x00, 0x00,
  0x00, 0x00, 0x00, 0x00, 0x00, 0x00, 0x00, 0x00, 0x00, 0x00, 0x00, 0x00, 0x00, 0x00, 0x00, 0x00,
  0x00, 0x00, 0x00, 0x00, 0x00, 0x00, 0x00, 0x00, 0x00, 0x00, 0x00, 0x00, 0x00, 0x00, 0x00, 0x00,
  0x00, 0x00, 0x00, 0x00, 0x00, 0x00, 0x00, 0x00, 0x00, 0x00, 0x00, 0x00, 0x00, 0x00, 0x00, 0x00,
  0x00, 0x00, 0x00, 0x00, 0x00, 0x00, 0x00, 0x00, 0x00, 0x00, 0x00, 0x00, 0x00, 0x00, 0x00, 0x00,
  0x00, 0x00, 0x00, 0x00, 0x00, 0x00, 0x00, 0x00, 0x00, 0x00, 0x00, 0x00, 0x00, 0x00, 0x00, 0x00,
  0x00, 0x00, 0x00, 0x00, 0x00, 0x00, 0x00, 0x00, 0x00, 0x00, 0x00, 0x00, 0x00, 0x00, 0x00, 0x00,
  0x00, 0x00, 0x00, 0x00, 0x00, 0x00, 0x00, 0x00, 0x00, 0x00, 0x00, 0x00, 0x00, 0x00, 0x00, 0x00,
  0x00, 0x00, 0x00, 0x00, 0x00, 0x00, 0x00, 0x00, 0x00, 0x00, 0x00, 0x00, 0x00, 0x00, 0x00, 0x00,
  0x00, 0x00, 0x00, 0x00, 0x00, 0x00, 0x00, 0x00, 0x00, 0x00, 0x00, 0x00, 0x20, 0x00, 0x00, 0x00,
  0x60, 0xe1, 0x68, 0x3b, 0x96, 0xc4, 0x79, 0x3c, 0x30, 0xe5, 0xf0, 0x3b, 0xa9, 0x74, 0xd2, 0x3b,
  0x14, 0xb9, 0xa2, 0x3b, 0x1c, 0xfe, 0x9a, 0x3b, 0xf0, 0x30, 0xd2, 0x3b, 0x58, 0x85, 0xae, 0x3b,
  0x90, 0x30, 0xee, 0x3b, 0x58, 0x52, 0x53, 0x3c, 0x52, 0xc4, 0x8f, 0x3b, 0x3e, 0xa4, 0x92, 0x3b,
  0x05, 0x1d, 0xae, 0x3b, 0x33, 0xcb, 0x75, 0x3c, 0x0b, 0xaa, 0x18, 0x3c, 0xa9, 0x16, 0x2b, 0x3c,
  0x4a, 0xf9, 0xfb, 0x3b, 0x51, 0xc3, 0xde, 0x3b, 0x72, 0x40, 0xf1, 0x3b, 0x5a, 0xfd, 0xa5, 0x3b,
  0xf6, 0xc9, 0x13, 0x3c, 0x79, 0x2c, 0x16, 0x3c, 0x6e, 0x30, 0xbb, 0x3b, 0xbc, 0xf9, 0xb2, 0x3b,
  0x1a, 0xee, 0x3b, 0x3c, 0x3b, 0xf3, 0x80, 0x3b, 0x43, 0xe1, 0xd6, 0x3b, 0x97, 0xb4, 0x12, 0x3c,
  0x43, 0x91, 0x60, 0x3b, 0xe9, 0x4c, 0xc0, 0x3b, 0xa9, 0x95, 0x1c, 0x3c, 0x28, 0xa5, 0xa4, 0x3b,
  0x12, 0x00, 0x00, 0x00, 0x74, 0x66, 0x6c, 0x2e, 0x70, 0x73, 0x65, 0x75, 0x64, 0x6f, 0x5f, 0x71,
  0x63, 0x6f, 0x6e, 0x73, 0x74, 0x35, 0x00, 0x00, 0x04, 0x00, 0x00, 0x00, 0x01, 0x00, 0x00, 0x00,
  0x03, 0x00, 0x00, 0x00, 0x03, 0x00, 0x00, 0x00, 0x20, 0x00, 0x00, 0x00, 0xa2, 0xf9, 0xff, 0xff,
  0x00, 0x00, 0x00, 0x01, 0x14, 0x00, 0x00, 0x00, 0xa4, 0x01, 0x00, 0x00, 0x07, 0x00, 0x00, 0x00,
  0x00, 0x00, 0x00, 0x02, 0xb0, 0x01, 0x00, 0x00, 0x1c, 0xf9, 0xff, 0xff, 0x08, 0x00, 0x00, 0x00,
  0x08, 0x01, 0x00, 0x00, 0x20, 0x00, 0x00, 0x00, 0x00, 0x00, 0x00, 0x00, 0x00, 0x00, 0x00, 0x00,
  0x00, 0x00, 0x00, 0x00, 0x00, 0x00, 0x00, 0x00, 0x00, 0x00, 0x00, 0x00, 0x00, 0x00, 0x00, 0x00,
  0x00, 0x00, 0x00, 0x00, 0x00, 0x00, 0x00, 0x00, 0x00, 0x00, 0x00, 0x00, 0x00, 0x00, 0x00, 0x00,
  0x00, 0x00, 0x00, 0x00, 0x00, 0x00, 0x00, 0x00, 0x00, 0x00, 0x00, 0x00, 0x00, 0x00, 0x00, 0x00,
  0x00, 0x00, 0x00, 0x00, 0x00, 0x00, 0x00, 0x00, 0x00, 0x00, 0x00, 0x00, 0x00, 0x00, 0x00, 0x00,
  0x00, 0x00, 0x00, 0x00, 0x00, 0x00, 0x00, 0x00, 0x00, 0x00, 0x00, 0x00, 0x00, 0x00, 0x00, 0x00,
  0x00, 0x00, 0x00, 0x00, 0x00, 0x00, 0x00, 0x00, 0x00, 0x00, 0x00, 0x00, 0x00, 0x00, 0x00, 0x00,
  0x00, 0x00, 0x00, 0x00, 0x00, 0x00, 0x00, 0x00, 0x00, 0x00, 0x00, 0x00, 0x00, 0x00, 0x00, 0x00,
  0x00, 0x00, 0x00, 0x00, 0x00, 0x00, 0x00, 0x00, 0x00, 0x00, 0x00, 0x00, 0x00, 0x00, 0x00, 0x00,
  0x00, 0x00, 0x00, 0x00, 0x00, 0x00, 0x00, 0x00, 0x00, 0x00, 0x00, 0x00, 0x00, 0x00, 0x00, 0x00,
  0x00, 0x00, 0x00, 0x00, 0x00, 0x00, 0x00, 0x00, 0x00, 0x00, 0x00, 0x00, 0x00, 0x00, 0x00, 0x00,
  0x00, 0x00, 0x00, 0x00, 0x00, 0x00, 0x00, 0x00, 0x00, 0x00, 0x00, 0x00, 0x00, 0x00, 0x00, 0x00,
  0x00, 0x00, 0x00, 0x00, 0x00, 0x00, 0x00, 0x00, 0x00, 0x00, 0x00, 0x00, 0x00, 0x00, 0x00, 0x00,
  0x00, 0x00, 0x00, 0x00, 0x00, 0x00, 0x00, 0x00, 0x00, 0x00, 0x00, 0x00, 0x00, 0x00, 0x00, 0x00,
  0x00, 0x00, 0x00, 0x00, 0x00, 0x00, 0x00, 0x00, 0x00, 0x00, 0x00, 0x00, 0x00, 0x00, 0x00, 0x00,
  0x00, 0x00, 0x00, 0x00, 0x00, 0x00, 0x00, 0x00, 0x00, 0x00, 0x00, 0x00, 0x00, 0x00, 0x00, 0x00,
  0x00, 0x00, 0x00, 0x00, 0x00, 0x00, 0x00, 0x00, 0x20, 0x00, 0x00, 0x00, 0x9e, 0xd7, 0xb2, 0x39,
  0xa9, 0xcf, 0xbf, 0x3a, 0x53, 0xff, 0x38, 0x3a, 0xfe, 0x9e, 0x21, 0x3a, 0xbe, 0xed, 0xf9, 0x39,
  0x37, 0x0e, 0xee, 0x39, 0xfc, 0x6a, 0x21, 0x3a, 0x4f, 0x06, 0x06, 0x3a, 0x6b, 0xeb, 0x36, 0x3a,
  0x3c, 0x49, 0xa2, 0x3a, 0x51, 0xd0, 0xdc, 0x39, 0xa1, 0x3a, 0xe1, 0x39, 0x31, 0xb6, 0x05, 0x3a,
  0x5a, 0xc2, 0xbc, 0x3a, 0xb5, 0x7a, 0x6a, 0x3a, 0x84, 0x63, 0x83, 0x3a, 0x54, 0x81, 0x41, 0x3a,
  0x90, 0x12, 0x2b, 0x3a, 0x68, 0x45, 0x39, 0x3a, 0x30, 0xf2, 0xfe, 0x39, 0xc2, 0xfd, 0x62, 0x3a,
  0x74, 0xa7, 0x66, 0x3a, 0xdc, 0xc0, 0x0f, 0x3a, 0x14, 0x72, 0x09, 0x3a, 0x85, 0x52, 0x90, 0x3a,
  0x74, 0x0e, 0xc6, 0x39, 0xc8, 0x04, 0x25, 0x3a, 0xbd, 0x53, 0x61, 0x3a, 0x51, 0x75, 0xac, 0x39,
  0xb8, 0xad, 0x13, 0x3a, 0x2d, 0x80, 0x70, 0x3a, 0x88, 0xe1, 0xfc, 0x39, 0x12, 0x00, 0x00, 0x00,
  0x74, 0x66, 0x6c, 0x2e, 0x70, 0x73, 0x65, 0x75, 0x64, 0x6f, 0x5f, 0x71, 0x63, 0x6f, 0x6e, 0x73,
  0x74, 0x34, 0x00, 0x00, 0x01, 0x00, 0x00, 0x00, 0x20, 0x00, 0x00, 0x00, 0x72, 0xfb, 0xff, 0xff,
  0x00, 0x00, 0x00, 0x01, 0x14, 0x00, 0x00, 0x00, 0xa8, 0x01, 0x00, 0x00, 0x06, 0x00, 0x00, 0x00,
  0x00, 0x00, 0x00, 0x09, 0xb4, 0x01, 0x00, 0x00, 0xec, 0xfa, 0xff, 0xff, 0x08, 0x00, 0x00, 0x00,
  0x0c, 0x01, 0x00, 0x00, 0x20, 0x00, 0x00, 0x00, 0x00, 0x00, 0x00, 0x00, 0x00, 0x00, 0x00, 0x00,
  0x00, 0x00, 0x00, 0x00, 0x00, 0x00, 0x00, 0x00, 0x00, 0x00, 0x00, 0x00, 0x00, 0x00, 0x00, 0x00,
  0x00, 0x00, 0x00, 0x00, 0x00, 0x00, 0x00, 0x00, 0x00, 0x00, 0x00, 0x00, 0x00, 0x00, 0x00, 0x00,
  0x00, 0x00, 0x00, 0x00, 0x00, 0x00, 0x00, 0x00, 0x00, 0x00, 0x00, 0x00, 0x00, 0x00, 0x00, 0x00,
  0x00, 0x00, 0x00, 0x00, 0x00, 0x00, 0x00, 0x00, 0x00, 0x00, 0x00, 0x00, 0x00, 0x00, 0x00, 0x00,
  0x00, 0x00, 0x00, 0x00, 0x00, 0x00, 0x00, 0x00, 0x00, 0x00, 0x00, 0x00, 0x00, 0x00, 0x00, 0x00,
  0x00, 0x00, 0x00, 0x00, 0x00, 0x00, 0x00, 0x00, 0x00, 0x00, 0x00, 0x00, 0x00, 0x00, 0x00, 0x00,
  0x00, 0x00, 0x00, 0x00, 0x00, 0x00, 0x00, 0x00, 0x00, 0x00, 0x00, 0x00, 0x00, 0x00, 0x00, 0x00,
  0x00, 0x00, 0x00, 0x00, 0x00, 0x00, 0x00, 0x00, 0x00, 0x00, 0x00, 0x00, 0x00, 0x00, 0x00, 0x00,
  0x00, 0x00, 0x00, 0x00, 0x00, 0x00, 0x00, 0x00, 0x00, 0x00, 0x00, 0x00, 0x00, 0x00, 0x00, 0x00,
  0x00, 0x00, 0x00, 0x00, 0x00, 0x00, 0x00, 0x00, 0x00, 0x00, 0x00, 0x00, 0x00, 0x00, 0x00, 0x00,
  0x00, 0x00, 0x00, 0x00, 0x00, 0x00, 0x00, 0x00, 0x00, 0x00, 0x00, 0x00, 0x00, 0x00, 0x00, 0x00,
  0x00, 0x00, 0x00, 0x00, 0x00, 0x00, 0x00, 0x00, 0x00, 0x00, 0x00, 0x00, 0x00, 0x00, 0x00, 0x00,
  0x00, 0x00, 0x00, 0x00, 0x00, 0x00, 0x00, 0x00, 0x00, 0x00, 0x00, 0x00, 0x00, 0x00, 0x00, 0x00,
  0x00, 0x00, 0x00, 0x00, 0x00, 0x00, 0x00, 0x00, 0x00, 0x00, 0x00, 0x00, 0x00, 0x00, 0x00, 0x00,
  0x00, 0x00, 0x00, 0x00, 0x00, 0x00, 0x00, 0x00, 0x00, 0x00, 0x00, 0x00, 0x00, 0x00, 0x00, 0x00,
  0x00, 0x00, 0x00, 0x00, 0x00, 0x00, 0x00, 0x00, 0x00, 0x00, 0x00, 0x00, 0x20, 0x00, 0x00, 0x00,
  0x32, 0x35, 0xba, 0x3b, 0xcf, 0x49, 0xc6, 0x3b, 0x6f, 0x07, 0x69, 0x3b, 0xef, 0x56, 0x87, 0x3b,
  0x4e, 0x54, 0xb5, 0x3b, 0x1d, 0x4b, 0x7a, 0x3b, 0x5b, 0xca, 0xa2, 0x3b, 0xc2, 0x7b, 0x7e, 0x3b,
  0xc1, 0xac, 0x9f, 0x3b, 0x7f, 0x07, 0xb6, 0x3b, 0x8e, 0x7f, 0x92, 0x3b, 0xf7, 0x89, 0xc3, 0x3b,
  0x28, 0x76, 0xaa, 0x3b, 0x3a, 0x05, 0xc5, 0x3b, 0xf2, 0xad, 0x42, 0x3b, 0xd0, 0x83, 0xbc, 0x3b,
  0x4f, 0x40, 0xfb, 0x3b, 0x32, 0x9d, 0x94, 0x3b, 0xee, 0x61, 0xd5, 0x3b, 0x30, 0x8a, 0xb1, 0x3b,
  0x91, 0x57, 0xc2, 0x3b, 0x67, 0xfb, 0xe8, 0x3b, 0x5b, 0x32, 0xae, 0x3b, 0x12, 0x1a, 0xce, 0x3b,
  0xe9, 0x21, 0xbb, 0x3b, 0xad, 0xdd, 0xb7, 0x3b, 0xb6, 0xe1, 0x9a, 0x3b, 0xf8, 0xd6, 0x9a, 0x3b,
  0x79, 0xb0, 0x0a, 0x3c, 0xad, 0x6f, 0xd9, 0x3b, 0x22, 0xa5, 0xc0, 0x3b, 0xe3, 0xe7, 0xd5, 0x3b,
  0x12, 0x00, 0x00, 0x00, 0x74, 0x66, 0x6c, 0x2e, 0x70, 0x73, 0x65, 0x75, 0x64, 0x6f, 0x5f, 0x71,
  0x63, 0x6f, 0x6e, 0x73, 0x74, 0x33, 0x00, 0x00, 0x04, 0x00, 0x00, 0x00, 0x20, 0x00, 0x00, 0x00,
  0x01, 0x00, 0x00, 0x00, 0x01, 0x00, 0x00, 0x00, 0x20, 0x00, 0x00, 0x00, 0x52, 0xfd, 0xff, 0xff,
  0x00, 0x00, 0x00, 0x01, 0x14, 0x00, 0x00, 0x00, 0xa4, 0x01, 0x00, 0x00, 0x05, 0x00, 0x00, 0x00,
  0x00, 0x00, 0x00, 0x02, 0xb0, 0x01, 0x00, 0x00, 0xcc, 0xfc, 0xff, 0xff, 0x08, 0x00, 0x00, 0x00,
  0x08, 0x01, 0x00, 0x00, 0x20, 0x00, 0x00, 0x00, 0x00, 0x00, 0x00, 0x00, 0x00, 0x00, 0x00, 0x00,
  0x00, 0x00, 0x00, 0x00, 0x00, 0x00, 0x00, 0x00, 0x00, 0x00, 0x00, 0x00, 0x00, 0x00, 0x00, 0x00,
  0x00, 0x00, 0x00, 0x00, 0x00, 0x00, 0x00, 0x00, 0x00, 0x00, 0x00, 0x00, 0x00, 0x00, 0x00, 0x00,
  0x00, 0x00, 0x00, 0x00, 0x00, 0x00, 0x00, 0x00, 0x00, 0x00, 0x00, 0x00, 0x00, 0x00, 0x00, 0x00,
  0x00, 0x00, 0x00, 0x00, 0x00, 0x00, 0x00, 0x00, 0x00, 0x00, 0x00, 0x00, 0x00, 0x00, 0x00, 0x00,
  0x00, 0x00, 0x00, 0x00, 0x00, 0x00, 0x00, 0x00, 0x00, 0x00, 0x00, 0x00, 0x00, 0x00, 0x00, 0x00,
  0x00, 0x00, 0x00, 0x00, 0x00, 0x00, 0x00, 0x00, 0x00, 0x00, 0x00, 0x00, 0x00, 0x00, 0x00, 0x00,
  0x00, 0x00, 0x00, 0x00, 0x00, 0x00, 0x00, 0x00, 0x00, 0x00, 0x00, 0x00, 0x00, 0x00, 0x00, 0x00,
  0x00, 0x00, 0x00, 0x00, 0x00, 0x00, 0x00, 0x00, 0x00, 0x00, 0x00, 0x00, 0x00, 0x00, 0x00, 0x00,
  0x00, 0x00, 0x00, 0x00, 0x00, 0x00, 0x00, 0x00, 0x00, 0x00, 0x00, 0x00, 0x00, 0x00, 0x00, 0x00,
  0x00, 0x00, 0x00, 0x00, 0x00, 0x00, 0x00, 0x00, 0x00, 0x00, 0x00, 0x00, 0x00, 0x00, 0x00, 0x00,
  0x00, 0x00, 0x00, 0x00, 0x00, 0x00, 0x00, 0x00, 0x00, 0x00, 0x00, 0x00, 0x00, 0x00, 0x00, 0x00,
  0x00, 0x00, 0x00, 0x00, 0x00, 0x00, 0x00, 0x00, 0x00, 0x00, 0x00, 0x00, 0x00, 0x00, 0x00, 0x00,
  0x00, 0x00, 0x00, 0x00, 0x00, 0x00, 0x00, 0x00, 0x00, 0x00, 0x00, 0x00, 0x00, 0x00, 0x00, 0x00,
  0x00, 0x00, 0x00, 0x00, 0x00, 0x00, 0x00, 0x00, 0x00, 0x00, 0x00, 0x00, 0x00, 0x00, 0x00, 0x00,
  0x00, 0x00, 0x00, 0x00, 0x00, 0x00, 0x00, 0x00, 0x00, 0x00, 0x00, 0x00, 0x00, 0x00, 0x00, 0x00,
  0x00, 0x00, 0x00, 0x00, 0x00, 0x00, 0x00, 0x00, 0x20, 0x00, 0x00, 0x00, 0x71, 0x27, 0x11, 0x3a,
  0x38, 0x92, 0x1a, 0x3a, 0x0b, 0xa7, 0xb5, 0x39, 0x77, 0x00, 0xd3, 0x39, 0xe6, 0x59, 0x0d, 0x3a,
  0x4e, 0x1c, 0xc3, 0x39, 0x9a, 0xcc, 0xfd, 0x39, 0x76, 0x60, 0xc6, 0x39, 0x19, 0xf1, 0xf8, 0x39,
  0x95, 0xe5, 0x0d, 0x3a, 0x18, 0x66, 0xe4, 0x39, 0x8e, 0x6d, 0x18, 0x3a, 0x23, 0xe1, 0x04, 0x3a,
  0x33, 0x95, 0x19, 0x3a, 0x0b, 0xc2, 0x97, 0x39, 0xd8, 0xf3, 0x12, 0x3a, 0x71, 0xdb, 0x43, 0x3a,
  0x8b, 0xb2, 0xe7, 0x39, 0x68, 0x56, 0x26, 0x3a, 0xaa, 0x65, 0x0a, 0x3a, 0xb5, 0x7e, 0x17, 0x3a,
  0xaa, 0x9d, 0x35, 0x3a, 0x85, 0xca, 0x07, 0x3a, 0x7a, 0xa9, 0x20, 0x3a, 0xf8, 0xdf, 0x11, 0x3a,
  0x1a, 0x54, 0x0f, 0x3a, 0x12, 0x78, 0xf1, 0x39, 0x52, 0x67, 0xf1, 0x39, 0x6b, 0x39, 0x58, 0x3a,
  0x5c, 0x7f, 0x29, 0x3a, 0x0e, 0x2c, 0x16, 0x3a, 0xd5, 0xbe, 0x26, 0x3a, 0x12, 0x00, 0x00, 0x00,
  0x74, 0x66, 0x6c, 0x2e, 0x70, 0x73, 0x65, 0x75, 0x64, 0x6f, 0x5f, 0x71, 0x63, 0x6f, 0x6e, 0x73,
  0x74, 0x32, 0x00, 0x00, 0x01, 0x00, 0x00, 0x00, 0x20, 0x00, 0x00, 0x00, 0x22, 0xff, 0xff, 0xff,
  0x00, 0x00, 0x00, 0x01, 0x14, 0x00, 0x00, 0x00, 0x40, 0x00, 0x00, 0x00, 0x04, 0x00, 0x00, 0x00,
  0x00, 0x00, 0x00, 0x09, 0x4c, 0x00, 0x00, 0x00, 0x9c, 0xfe, 0xff, 0xff, 0x08, 0x00, 0x00, 0x00,
  0x1c, 0x00, 0x00, 0x00, 0x02, 0x00, 0x00, 0x00, 0x00, 0x00, 0x00, 0x00, 0x00, 0x00, 0x00, 0x00,
  0x00, 0x00, 0x00, 0x00, 0x00, 0x00, 0x00, 0x00, 0x00, 0x00, 0x00, 0x00, 0x02, 0x00, 0x00, 0x00,
  0x21, 0xa6, 0xaa, 0x3b, 0xee, 0x8b, 0xaa, 0x3b, 0x12, 0x00, 0x00, 0x00, 0x74, 0x66, 0x6c, 0x2e,
  0x70, 0x73, 0x65, 0x75, 0x64, 0x6f, 0x5f, 0x71, 0x63, 0x6f, 0x6e, 0x73, 0x74, 0x31, 0x00, 0x00,
  0x02, 0x00, 0x00, 0x00, 0x02, 0x00, 0x00, 0x00, 0x20, 0x00, 0x00, 0x00, 0x92, 0xff, 0xff, 0xff,
  0x00, 0x00, 0x00, 0x01, 0x14, 0x00, 0x00, 0x00, 0x40, 0x00, 0x00, 0x00, 0x03, 0x00, 0x00, 0x00,
  0x00, 0x00, 0x00, 0x02, 0x4c, 0x00, 0x00, 0x00, 0x0c, 0xff, 0xff, 0xff, 0x08, 0x00, 0x00, 0x00,
  0x1c, 0x00, 0x00, 0x00, 0x02, 0x00, 0x00, 0x00, 0x00, 0x00, 0x00, 0x00, 0x00, 0x00, 0x00, 0x00,
  0x00, 0x00, 0x00, 0x00, 0x00, 0x00, 0x00, 0x00, 0x00, 0x00, 0x00, 0x00, 0x02, 0x00, 0x00, 0x00,
  0x8c, 0x30, 0x33, 0x39, 0x0a, 0x15, 0x33, 0x39, 0x11, 0x00, 0x00, 0x00, 0x74, 0x66, 0x6c, 0x2e,
  0x70, 0x73, 0x65, 0x75, 0x64, 0x6f, 0x5f, 0x71, 0x63, 0x6f, 0x6e, 0x73, 0x74, 0x00, 0x00, 0x00,
  0x01, 0x00, 0x00, 0x00, 0x02, 0x00, 0x00, 0x00, 0x00, 0x00, 0x16, 0x00, 0x1c, 0x00, 0x18, 0x00,
  0x17, 0x00, 0x10, 0x00, 0x0c, 0x00, 0x08, 0x00, 0x00, 0x00, 0x00, 0x00, 0x00, 0x00, 0x07, 0x00,
  0x16, 0x00, 0x00, 0x00, 0x00, 0x00, 0x00, 0x01, 0x18, 0x00, 0x00, 0x00, 0x18, 0x00, 0x00, 0x00,
  0x02, 0x00, 0x00, 0x00, 0x00, 0x00, 0x00, 0x02, 0x20, 0x00, 0x00, 0x00, 0x04, 0x00, 0x04, 0x00,
  0x04, 0x00, 0x00, 0x00, 0x0e, 0x00, 0x00, 0x00, 0x61, 0x72, 0x69, 0x74, 0x68, 0x2e, 0x63, 0x6f,
  0x6e, 0x73, 0x74, 0x61, 0x6e, 0x74, 0x00, 0x00, 0x01, 0x00, 0x00, 0x00, 0x02, 0x00, 0x00, 0x00,
  0x00, 0x00, 0x16, 0x00, 0x20, 0x00, 0x1c, 0x00, 0x1b, 0x00, 0x14, 0x00, 0x10, 0x00, 0x0c, 0x00,
  0x00, 0x00, 0x00, 0x00, 0x08, 0x00, 0x07, 0x00, 0x16, 0x00, 0x00, 0x00, 0x00, 0x00, 0x00, 0x01,
  0x18, 0x00, 0x00, 0x00, 0x34, 0x00, 0x00, 0x00, 0x54, 0x00, 0x00, 0x00, 0x01, 0x00, 0x00, 0x00,
  0x00, 0x00, 0x00, 0x09, 0x6c, 0x00, 0x00, 0x00, 0x04, 0x00, 0x00, 0x00, 0xff, 0xff, 0xff, 0xff,
  0x40, 0x00, 0x00, 0x00, 0x40, 0x00, 0x00, 0x00, 0x03, 0x00, 0x00, 0x00, 0x0c, 0x00, 0x0c, 0x00,
  0x00, 0x00, 0x00, 0x00, 0x08, 0x00, 0x04, 0x00, 0x0c, 0x00, 0x00, 0x00, 0x08, 0x00, 0x00, 0x00,
  0x14, 0x00, 0x00, 0x00, 0x01, 0x00, 0x00, 0x00, 0x80, 0xff, 0xff, 0xff, 0xff, 0xff, 0xff, 0xff,
  0x00, 0x00, 0x00, 0x00, 0x01, 0x00, 0x00, 0x00, 0x7c, 0x80, 0x80, 0x3b, 0x1e, 0x00, 0x00, 0x00,
  0x73, 0x65, 0x72, 0x76, 0x69, 0x6e, 0x67, 0x5f, 0x64, 0x65, 0x66, 0x61, 0x75, 0x6c, 0x74, 0x5f,
  0x6b, 0x65, 0x72, 0x61, 0x73, 0x5f, 0x74, 0x65, 0x6e, 0x73, 0x6f, 0x72, 0x3a, 0x30, 0x00, 0x00,
  0x04, 0x00, 0x00, 0x00, 0x01, 0x00, 0x00, 0x00, 0x40, 0x00, 0x00, 0x00, 0x40, 0x00, 0x00, 0x00,
  0x03, 0x00, 0x00, 0x00, 0x05, 0x00, 0x00, 0x00, 0x60, 0x00, 0x00, 0x00, 0x40, 0x00, 0x00, 0x00,
  0x2c, 0x00, 0x00, 0x00, 0x18, 0x00, 0x00, 0x00, 0x04, 0x00, 0x00, 0x00, 0xc0, 0xff, 0xff, 0xff,
  0x19, 0x00, 0x00, 0x00, 0x02, 0x00, 0x00, 0x00, 0x00, 0x00, 0x00, 0x19, 0xd0, 0xff, 0xff, 0xff,
  0x09, 0x00, 0x00, 0x00, 0x04, 0x00, 0x00, 0x00, 0x00, 0x00, 0x00, 0x09, 0xe0, 0xff, 0xff, 0xff,
  0x28, 0x00, 0x00, 0x00, 0x02, 0x00, 0x00, 0x00, 0x00, 0x00, 0x00, 0x28, 0xf0, 0xff, 0xff, 0xff,
  0x04, 0x00, 0x00, 0x00, 0x03, 0x00, 0x00, 0x00, 0x00, 0x00, 0x00, 0x04, 0x0c, 0x00, 0x10, 0x00,
  0x0f, 0x00, 0x00, 0x00, 0x08, 0x00, 0x04, 0x00, 0x0c, 0x00, 0x00, 0x00, 0x03, 0x00, 0x00, 0x00,
  0x03, 0x00, 0x00, 0x00, 0x00, 0x00, 0x00, 0x03
};

const unsigned int model_data_len = 13816;
